{
  "version": "1.0",
  "truncation": null,
  "padding": null,
  "added_tokens": [
    {
      "id": 0,
      "content": "<unk>",
      "single_word": false,
      "lstrip": false,
      "rstrip": false,
      "normalized": false,
      "special": true
    },
    {
      "id": 1,
      "content": "<bos>",
      "single_word": false,
      "lstrip": false,
      "rstrip": false,
      "normalized": false,
      "special": true
    },
    {
      "id": 2,
      "content": "<eos>",
      "single_word": false,
      "lstrip": false,
      "rstrip": false,
      "normalized": false,
      "special": true
    },
    {
      "id": 3,
      "content": "<pad>",
      "single_word": false,
      "lstrip": false,
      "rstrip": false,
      "normalized": false,
      "special": true
    },
    {
      "id": 4,
      "content": "<think>",
      "single_word": false,
      "lstrip": false,
      "rstrip": false,
      "normalized": false,
      "special": true
    },
    {
      "id": 5,
      "content": "</think>",
      "single_word": false,
      "lstrip": false,
      "rstrip": false,
      "normalized": false,
      "special": true
    }
  ],
  "normalizer": null,
  "pre_tokenizer": {
    "type": "ByteLevel",
    "add_prefix_space": false,
    "trim_offsets": true,
    "use_regex": true
  },
  "post_processor": null,
  "decoder": {
    "type": "ByteLevel",
    "add_prefix_space": true,
    "trim_offsets": true,
    "use_regex": true
  },
  "model": {
    "type": "BPE",
    "dropout": null,
    "unk_token": null,
    "continuing_subword_prefix": null,
    "end_of_word_suffix": null,
    "fuse_unk": false,
    "byte_fallback": false,
    "ignore_merges": false,
    "vocab": {
      "<unk>": 0,
      "<bos>": 1,
      "<eos>": 2,
      "<pad>": 3,
      "<think>": 4,
      "</think>": 5,
      "!": 6,
      "\"": 7,
      "#": 8,
      "$": 9,
      "%": 10,
      "&": 11,
      "'": 12,
      "(": 13,
      ")": 14,
      "*": 15,
      "+": 16,
      ",": 17,
      "-": 18,
      ".": 19,
      "/": 20,
      "0": 21,
      "1": 22,
      "2": 23,
      "3": 24,
      "4": 25,
      "5": 26,
      "6": 27,
      "7": 28,
      "8": 29,
      "9": 30,
      ":": 31,
      ";": 32,
      "<": 33,
      "=": 34,
      ">": 35,
      "?": 36,
      "@": 37,
      "A": 38,
      "B": 39,
      "C": 40,
      "D": 41,
      "E": 42,
      "F": 43,
      "G": 44,
      "H": 45,
      "I": 46,
      "J": 47,
      "K": 48,
      "L": 49,
      "M": 50,
      "N": 51,
      "O": 52,
      "P": 53,
      "Q": 54,
      "R": 55,
      "S": 56,
      "T": 57,
      "U": 58,
      "V": 59,
      "W": 60,
      "X": 61,
      "Y": 62,
      "Z": 63,
      "[": 64,
      "\\": 65,
      "]": 66,
      "^": 67,
      "_": 68,
      "`": 69,
      "a": 70,
      "b": 71,
      "c": 72,
      "d": 73,
      "e": 74,
      "f": 75,
      "g": 76,
      "h": 77,
      "i": 78,
      "j": 79,
      "k": 80,
      "l": 81,
      "m": 82,
      "n": 83,
      "o": 84,
      "p": 85,
      "q": 86,
      "r": 87,
      "s": 88,
      "t": 89,
      "u": 90,
      "v": 91,
      "w": 92,
      "x": 93,
      "y": 94,
      "z": 95,
      "{": 96,
      "|": 97,
      "}": 98,
      "~": 99,
      "¡": 100,
      "¢": 101,
      "£": 102,
      "¤": 103,
      "¥": 104,
      "¦": 105,
      "§": 106,
      "¨": 107,
      "©": 108,
      "ª": 109,
      "«": 110,
      "¬": 111,
      "®": 112,
      "¯": 113,
      "°": 114,
      "±": 115,
      "²": 116,
      "³": 117,
      "´": 118,
      "µ": 119,
      "¶": 120,
      "·": 121,
      "¸": 122,
      "¹": 123,
      "º": 124,
      "»": 125,
      "¼": 126,
      "½": 127,
      "¾": 128,
      "¿": 129,
      "À": 130,
      "Á": 131,
      "Â": 132,
      "Ã": 133,
      "Ä": 134,
      "Å": 135,
      "Æ": 136,
      "Ç": 137,
      "È": 138,
      "É": 139,
      "Ê": 140,
      "Ë": 141,
      "Ì": 142,
      "Í": 143,
      "Î": 144,
      "Ï": 145,
      "Ð": 146,
      "Ñ": 147,
      "Ò": 148,
      "Ó": 149,
      "Ô": 150,
      "Õ": 151,
      "Ö": 152,
      "×": 153,
      "Ø": 154,
      "Ù": 155,
      "Ú": 156,
      "Û": 157,
      "Ü": 158,
      "Ý": 159,
      "Þ": 160,
      "ß": 161,
      "à": 162,
      "á": 163,
      "â": 164,
      "ã": 165,
      "ä": 166,
      "å": 167,
      "æ": 168,
      "ç": 169,
      "è": 170,
      "é": 171,
      "ê": 172,
      "ë": 173,
      "ì": 174,
      "í": 175,
      "î": 176,
      "ï": 177,
      "ð": 178,
      "ñ": 179,
      "ò": 180,
      "ó": 181,
      "ô": 182,
      "õ": 183,
      "ö": 184,
      "÷": 185,
      "ø": 186,
      "ù": 187,
      "ú": 188,
      "û": 189,
      "ü": 190,
      "ý": 191,
      "þ": 192,
      "ÿ": 193,
      "Ā": 194,
      "ā": 195,
      "Ă": 196,
      "ă": 197,
      "Ą": 198,
      "ą": 199,
      "Ć": 200,
      "ć": 201,
      "Ĉ": 202,
      "ĉ": 203,
      "Ċ": 204,
      "ċ": 205,
      "Č": 206,
      "č": 207,
      "Ď": 208,
      "ď": 209,
      "Đ": 210,
      "đ": 211,
      "Ē": 212,
      "ē": 213,
      "Ĕ": 214,
      "ĕ": 215,
      "Ė": 216,
      "ė": 217,
      "Ę": 218,
      "ę": 219,
      "Ě": 220,
      "ě": 221,
      "Ĝ": 222,
      "ĝ": 223,
      "Ğ": 224,
      "ğ": 225,
      "Ġ": 226,
      "ġ": 227,
      "Ģ": 228,
      "ģ": 229,
      "Ĥ": 230,
      "ĥ": 231,
      "Ħ": 232,
      "ħ": 233,
      "Ĩ": 234,
      "ĩ": 235,
      "Ī": 236,
      "ī": 237,
      "Ĭ": 238,
      "ĭ": 239,
      "Į": 240,
      "į": 241,
      "İ": 242,
      "ı": 243,
      "Ĳ": 244,
      "ĳ": 245,
      "Ĵ": 246,
      "ĵ": 247,
      "Ķ": 248,
      "ķ": 249,
      "ĸ": 250,
      "Ĺ": 251,
      "ĺ": 252,
      "Ļ": 253,
      "ļ": 254,
      "Ľ": 255,
      "ľ": 256,
      "Ŀ": 257,
      "ŀ": 258,
      "Ł": 259,
      "ł": 260,
      "Ń": 261,
      "ï¼": 262,
      "ä¸": 263,
      "ï¼Į": 264,
      "çļ": 265,
      "çļĦ": 266,
      "ãĢ": 267,
      "ãĢĤ": 268,
      "ä»": 269,
      "äº": 270,
      "åı": 271,
      "æľ": 272,
      "ä½": 273,
      "è¿": 274,
      "åħ": 275,
      "æĪ": 276,
      "åĪ": 277,
      "åĴ": 278,
      "çĶ": 279,
      "å®": 280,
      "å¤": 281,
      "åĴĮ": 282,
      "æĺ": 283,
      "åľ": 284,
      "åĲ": 285,
      "ä¸Ģ": 286,
      "åĬ": 287,
      "è¯": 288,
      "ç»": 289,
      "æĸ": 290,
      "æĺ¯": 291,
      "ä¹": 292,
      "ĠĠ": 293,
      "ä»¥": 294,
      "å°": 295,
      "è®": 296,
      "ï¼ļ": 297,
      "åŃ": 298,
      "ãĢģ": 299,
      "åı¯": 300,
      "æķ": 301,
      "ä¸ª": 302,
      "åº": 303,
      "åľ¨": 304,
      "ĥ½": 305,
      "éĢ": 306,
      "æĹ": 307,
      "æĪĳ": 308,
      "æľī": 309,
      "ä¼": 310,
      "æĿ": 311,
      "å¸": 312,
      "å¹": 313,
      "éĩ": 314,
      "è¡": 315,
      "çĶ¨": 316,
      "èĥ½": 317,
      "è¦": 318,
      "å¯": 319,
      "åĽ": 320,
      "è¦ģ": 321,
      "äºº": 322,
      "è§": 323,
      "åĮ": 324,
      "åĩ": 325,
      "ä¸Ń": 326,
      "æĢ": 327,
      "äºĨ": 328,
      "å·": 329,
      "å¼": 330,
      "è¿Ļ": 331,
      "ä»¬": 332,
      "åĨ": 333,
      "ä¸į": 334,
      "èĢ": 335,
      "çİ": 336,
      "å¾": 337,
      "çī": 338,
      "æī": 339,
      "åı¯ä»¥": 340,
      "ä¸º": 341,
      "éĹ": 342,
      "ç§": 343,
      "çŃ": 344,
      "é¢": 345,
      "å¥": 346,
      "æ³": 347,
      "æŀ": 348,
      "æĬ": 349,
      "å¦": 350,
      "çĽ": 351,
      "çĶŁ": 352,
      "æł": 353,
      "ä¿": 354,
      "åį": 355,
      "æŃ": 356,
      "å½": 357,
      "èĩ": 358,
      "éĿ": 359,
      "æĹ¶": 360,
      "æĦ": 361,
      "å¦Ĥ": 362,
      "æķ°": 363,
      "æĿ¥": 364,
      "çĲ": 365,
      "åĵ": 366,
      "æĥ": 367,
      "å¯¹": 368,
      "æı": 369,
      "æĸ¹": 370,
      "æİ": 371,
      "éľ": 372,
      "ä¾": 373,
      "è´": 374,
      "å¿": 375,
      "è¡Į": 376,
      "æĽ": 377,
      "æĭ": 378,
      "æĪĲ": 379,
      "çŃī": 380,
      "åĪ°": 381,
      "æ°": 382,
      "ä¸ĭ": 383,
      "åŃ¦": 384,
      "éľĢ": 385,
      "ä½ł": 386,
      "åĳ": 387,
      "æĶ": 388,
      "äºİ": 389,
      "åĪĨ": 390,
      "æ¯": 391,
      "æĮ": 392,
      "æį": 393,
      "ä¸Ģä¸ª": 394,
      "ä¼ļ": 395,
      "åİ": 396,
      "ä½ľ": 397,
      "åľ°": 398,
      "èĩª": 399,
      "æĪĳä»¬": 400,
      "äºĽ": 401,
      "å¥½": 402,
      "ä»ĸ": 403,
      "åĩº": 404,
      "çĲĨ": 405,
      "ç®": 406,
      "å¤ļ": 407,
      "æ²": 408,
      "æıĲ": 409,
      "èµ": 410,
      "æµ": 411,
      "æĢ§": 412,
      "è¾": 413,
      "æĽ´": 414,
      "ä¸Ĭ": 415,
      "æĸĩ": 416,
      "è¿ĩ": 417,
      "å¤§": 418,
      "âĢ": 419,
      "åıĳ": 420,
      "ĠĠĠĠ": 421,
      "å¹¶": 422,
      "å±": 423,
      "æĻ": 424,
      "çī©": 425,
      "éĻ": 426,
      "éľĢè¦ģ": 427,
      "åĬ¨": 428,
      "æ³ķ": 429,
      "åĮĸ": 430,
      "ä½¿": 431,
      "çİ°": 432,
      "è¿Ľ": 433,
      "å®ļ": 434,
      "åºĶ": 435,
      "ä½ĵ": 436,
      "æĤ": 437,
      "å°ı": 438,
      "å·¥": 439,
      "çº": 440,
      "æį®": 441,
      "æ´": 442,
      "é£": 443,
      "åŃĲ": 444,
      "éĿ¢": 445,
      "æŀľ": 446,
      "ç§į": 447,
      "é¢ĺ": 448,
      "éĢļ": 449,
      "åĲĮ": 450,
      "çļĦç": 451,
      "åĬĽ": 452,
      "èĤ": 453,
      "é«": 454,
      "å¸¸": 455,
      "éģ": 456,
      "æ¸": 457,
      "ä¿Ŀ": 458,
      "åĬł": 459,
      "åŁ": 460,
      "é«ĺ": 461,
      "æĪĸ": 462,
      "å°Ĩ": 463,
      "è§£": 464,
      "è½": 465,
      "åħ¶": 466,
      "åģ": 467,
      "ç±": 468,
      "çĤ": 469,
      "æľĢ": 470,
      "èī": 471,
      "éĹ®": 472,
      "éĺ": 473,
      "ï¼Ł": 474,
      "ç¨": 475,
      "éĩį": 476,
      "åħ³": 477,
      "æĥħ": 478,
      "ä¹Ł": 479,
      "æ±": 480,
      "éĹ´": 481,
      "éĩı": 482,
      "åº¦": 483,
      "ç«": 484,
      "çĸ": 485,
      "çĹ": 486,
      "æ¬": 487,
      "åĵģ": 488,
      "åĽł": 489,
      "æĦŁ": 490,
      "æĬĢ": 491,
      "è°": 492,
      "æľº": 493,
      "ç³": 494,
      "in": 495,
      "å»": 496,
      "åī": 497,
      "å®¶": 498,
      "ç¡": 499,
      "åĲĪ": 500,
      "å®ĥ": 501,
      "ä½¿çĶ¨": 502,
      "ä¹ĭ": 503,
      "ç»ı": 504,
      "è®¡": 505,
      "æľ¬": 506,
      "è¡¨": 507,
      "å®ŀ": 508,
      "çĦ": 509,
      "åĲİ": 510,
      "è¶": 511,
      "ç±»": 512,
      "èĢħ": 513,
      "å»º": 514,
      "å¾Ĺ": 515,
      "æĦı": 516,
      "æĤ¨": 517,
      "çľ": 518,
      "æľ¯": 519,
      "èĢĮ": 520,
      "å¢": 521,
      "ç¨ĭ": 522,
      "æĸ°": 523,
      "ä¸ļ": 524,
      "åĢ": 525,
      "éĶ": 526,
      "ç´": 527,
      "ç¤": 528,
      "æĺİ": 529,
      "åħ¬": 530,
      "çĦ¶": 531,
      "Ł¥": 532,
      "éĹ®é¢ĺ": 533,
      "æģ": 534,
      "ĠĠĠ": 535,
      "ç¡®": 536,
      "å¿ĥ": 537,
      "çĿ": 538,
      "åĪ¶": 539,
      "on": 540,
      "å¼ı": 541,
      "èĬ": 542,
      "å¹´": 543,
      "ä¸İ": 544,
      "ä¹ł": 545,
      "æīĢ": 546,
      "åħ¥": 547,
      "çĤ¹": 548,
      "åı¯èĥ½": 549,
      "è¿Ľè¡Į": 550,
      "ç½": 551,
      "åĬ©": 552,
      "æ´»": 553,
      "ä¿¡": 554,
      "ä¸»": 555,
      "äº§": 556,
      "ä¹Ī": 557,
      "ç³»": 558,
      "æĮģ": 559,
      "er": 560,
      "çĽ¸": 561,
      "å¾Ī": 562,
      "å½±": 563,
      "æŃ¤": 564,
      "é¡": 565,
      "ä½Ĩ": 566,
      "ç®Ĺ": 567,
      "æķ°æį®": 568,
      "è¿ĺ": 569,
      "å¤©": 570,
      "èī²": 571,
      "åħ·": 572,
      "th": 573,
      "åĨħ": 574,
      "è¯¥": 575,
      "éļ": 576,
      "éķ": 577,
      "çĶµ": 578,
      "ä¸ĢäºĽ": 579,
      "åŀ": 580,
      "é£Ł": 581,
      "èį": 582,
      "è¯Ń": 583,
      "æĻº": 584,
      "æ°´": 585,
      "éª": 586,
      "å¼Ģ": 587,
      "åĮħ": 588,
      "æ¯Ķ": 589,
      "ä¾Ľ": 590,
      "ç¬": 591,
      "ç»Ļ": 592,
      "çī¹": 593,
      "ç©": 594,
      "æ·": 595,
      "æĪ·": 596,
      "åħ¨": 597,
      "åĬ¡": 598,
      "éĥ½": 599,
      "éħ": 600,
      "re": 601,
      "ä¾ĭ": 602,
      "éĢĤ": 603,
      "ç¼": 604,
      "çĽ®": 605,
      "ç»ĵ": 606,
      "âĢĿ": 607,
      "âĢľ": 608,
      "å½ĵ": 609,
      "ä»£": 610,
      "å±ķ": 611,
      "åĿ": 612,
      "çł": 613,
      "æ°Ķ": 614,
      "çķ": 615,
      "éĢī": 616,
      "è®¾": 617,
      "çĥ": 618,
      "éĥ": 619,
      "çĿĢ": 620,
      "çİ¯": 621,
      "ç¾": 622,
      "æĬĢæľ¯": 623,
      "æĻºèĥ½": 624,
      "éĤ": 625,
      "æ¶": 626,
      "å·±": 627,
      "åĻ": 628,
      "éķ¿": 629,
      "èĩªå·±": 630,
      "è·": 631,
      "åıĬ": 632,
      "åŃĹ": 633,
      "å¸®": 634,
      "éĢļè¿ĩ": 635,
      "è¿Ļä¸ª": 636,
      "åīį": 637,
      "ä»¥ä¸ĭ": 638,
      "ä»İ": 639,
      "åıĺ": 640,
      "æıĲä¾Ľ": 641,
      "Ġ=": 642,
      "ï¼ī": 643,
      "è¯´": 644,
      "æĥ³": 645,
      "æŃ£": 646,
      "èĻ": 647,
      "æ¡": 648,
      "æķĪ": 649,
      "éģĵ": 650,
      "è´¨": 651,
      "æľŁ": 652,
      "or": 653,
      "å¤ĸ": 654,
      "çĸĹ": 655,
      "äº¤": 656,
      "èģ": 657,
      "èº": 658,
      "åŃ¦ä¹ł": 659,
      "åĸ": 660,
      "åŀĭ": 661,
      "ï¼Ī": 662,
      "åĻ¨": 663,
      "``": 664,
      "åĲį": 665,
      "æ³¨": 666,
      "æ¯ı": 667,
      "èĥ": 668,
      "åľº": 669,
      "æīĭ": 670,
      "é¦": 671,
      "å¸Ĥ": 672,
      "äºĭ": 673,
      "éĿŀ": 674,
      "éĥ¨": 675,
      "èµ·": 676,
      "éĽ": 677,
      "èº«": 678,
      "å¹³": 679,
      "an": 680,
      "è®©": 681,
      "æģ¯": 682,
      "åĮ»": 683,
      "è¢": 684,
      "è®®": 685,
      "æ²»": 686,
      "å¦Ĥæŀľ": 687,
      "æł¹": 688,
      "åĽ½": 689,
      "ä½į": 690,
      "å¸®åĬ©": 691,
      "ä½ķ": 692,
      "æ±Ĥ": 693,
      "å°±": 694,
      "åıĸ": 695,
      "æĺ¯ä¸Ģ": 696,
      "æłĩ": 697,
      "å¤Ħ": 698,
      "st": 699,
      "èĲ": 700,
      "æĹ¶éĹ´": 701,
      "è¿ĻäºĽ": 702,
      "åı¸": 703,
      "è¯·": 704,
      "èĦ": 705,
      "æ®": 706,
      "æ¨": 707,
      "ä»ĸä»¬": 708,
      "at": 709,
      "å°ĳ": 710,
      "çĹħ": 711,
      "ç´ł": 712,
      "en": 713,
      "åĽŀ": 714,
      "ä»¶": 715,
      "ç»Ł": 716,
      "Ł³": 717,
      "çĲĥ": 718,
      "å§": 719,
      "æĹ¥": 720,
      "åķ": 721,
      "åıĹ": 722,
      "é¥": 723,
      "åĨ³": 724,
      "è°ĥ": 725,
      "åħ¬åı¸": 726,
      "éĩĮ": 727,
      "**": 728,
      "æĢ»": 729,
      "æ¨¡": 730,
      "åĵį": 731,
      "åĪ©": 732,
      "åĪĽ": 733,
      "ç¾İ": 734,
      "å®ī": 735,
      "çĬ": 736,
      "ä»»": 737,
      "ä¸įåĲĮ": 738,
      "æľį": 739,
      "è¢«": 740,
      "çĻ": 741,
      "å¤Ł": 742,
      "éĩįè¦ģ": 743,
      "æł¹æį®": 744,
      "åģ¥": 745,
      "éĤ£": 746,
      "æĭ¬": 747,
      "éĿŀå¸¸": 748,
      "æŁ": 749,
      "çľĭ": 750,
      "åİ»": 751,
      "å¯¼": 752,
      "æĭ©": 753,
      "æ¬¡": 754,
      "ä¸ŃçļĦ": 755,
      "éĢīæĭ©": 756,
      "å®¹": 757,
      "00": 758,
      "å¥½çļĦ": 759,
      "æĹł": 760,
      "æł·": 761,
      "æº": 762,
      "ä¸¤": 763,
      "èĢĥ": 764,
      "ĊĠĠĠĠ": 765,
      "å¼º": 766,
      "èĭ": 767,
      "åĪ«": 768,
      "é£İ": 769,
      "èµĦ": 770,
      "ä»Ģ": 771,
      "ç»Ħ": 772,
      "ĊĠĠĠ": 773,
      "æŃ¥": 774,
      "æĸ¹æ³ķ": 775,
      "åĮħæĭ¬": 776,
      "ç¥": 777,
      "ç²": 778,
      "å»ºè®®": 779,
      "ar": 780,
      "çŁ¥": 781,
      "èĪ": 782,
      "å½±åĵį": 783,
      "æµģ": 784,
      "åŁº": 785,
      "æ»": 786,
      "åĳĺ": 787,
      "æıĲé«ĺ": 788,
      "ä»Ģä¹Ī": 789,
      "ç®¡": 790,
      "åįķ": 791,
      "ä¾ĭå¦Ĥ": 792,
      "è¯Ŀ": 793,
      "å¢ĥ": 794,
      "æĮĩ": 795,
      "ç§ĳ": 796,
      "æĶ¾": 797,
      "å·¥ä½ľ": 798,
      "éĴ": 799,
      "åĨĻ": 800,
      "çĪ": 801,
      "ä¿¡æģ¯": 802,
      "æ®µ": 803,
      "æ£": 804,
      "éªĮ": 805,
      "ç¤¾": 806,
      "åºĶçĶ¨": 807,
      "åºı": 808,
      "åħĥ": 809,
      "åĨµ": 810,
      "æ²¡": 811,
      "è¯Ĩ": 812,
      "åĬŁ": 813,
      "çģ": 814,
      "äººå·¥": 815,
      "åĪĹ": 816,
      "å¢ŀ": 817,
      "è¨": 818,
      "le": 819,
      "è®¤": 820,
      "è¿°": 821,
      "æ²»çĸĹ": 822,
      "æł¼": 823,
      "åıĳå±ķ": 824,
      "èĬĤ": 825,
      "è¯į": 826,
      "æ¡Ī": 827,
      "å®¢": 828,
      "æİ¨": 829,
      "æµĭ": 830,
      "é¢Ĩ": 831,
      "ä¼ł": 832,
      "åĢ¼": 833,
      "å½¢": 834,
      "åº·": 835,
      "åĩı": 836,
      "çĬ¶": 837,
      "åĲĳ": 838,
      "åħĪ": 839,
      "è¯ķ": 840,
      "è±": 841,
      "äººå·¥æĻºèĥ½": 842,
      "é»": 843,
      "å¤į": 844,
      "è¿Ĳ": 845,
      "æĸĩæľ¬": 846,
      "ä¼ĺ": 847,
      "èĥ½å¤Ł": 848,
      "æŁ¥": 849,
      "ç¤º": 850,
      "å£": 851,
      "å¼ķ": 852,
      "éŁ³": 853,
      "è¨Ģ": 854,
      "æ¸¸": 855,
      "è®¡ç®Ĺ": 856,
      "æİ¥": 857,
      "åģļ": 858,
      "ç»Ĩ": 859,
      "å¦Ĥä½ķ": 860,
      "çĶŁæ´»": 861,
      "çĶ±": 862,
      "åĲĮæĹ¶": 863,
      "è§Ĥ": 864,
      "çĶ¨æĪ·": 865,
      "æ·±": 866,
      "æºĲ": 867,
      "çĭ": 868,
      "æķ´": 869,
      "æĸŃ": 870,
      "åºĶè¯¥": 871,
      "åŁŁ": 872,
      "æĬ¤": 873,
      "æĸ¹å¼ı": 874,
      "æ¸ħ": 875,
      "ä¸ī": 876,
      "èį¯": 877,
      "çİ¯å¢ĥ": 878,
      "ä¹Ĳ": 879,
      "åİŁ": 880,
      "åŃĺ": 881,
      "æĶ¯": 882,
      "èĩªå·±çļĦ": 883,
      "æĶ¹": 884,
      "çİĩ": 885,
      "ä»·": 886,
      "åģ¥åº·": 887,
      "æĸĻ": 888,
      "å¤ĩ": 889,
      "al": 890,
      "æķĻ": 891,
      "è®º": 892,
      "è§Ħ": 893,
      "åıª": 894,
      "è¾¾": 895,
      "æĥħåĨµ": 896,
      "æī¾": 897,
      "ç½ĳ": 898,
      "éĢł": 899,
      "å®Į": 900,
      "é¡¹": 901,
      "ç«ł": 902,
      "èı": 903,
      "åı£": 904,
      "é¢Ħ": 905,
      "se": 906,
      "å¤ĦçĲĨ": 907,
      "åĩĨ": 908,
      "è½¦": 909,
      "è¾ĵ": 910,
      "åĽłæŃ¤": 911,
      "è£": 912,
      "æŀĲ": 913,
      "æĸ¹éĿ¢": 914,
      "èİ": 915,
      "åĪĻ": 916,
      "åħ¶ä»ĸ": 917,
      "èĩ´": 918,
      "å®ĥä»¬": 919,
      "è¾ĥ": 920,
      "åĮº": 921,
      "æĢģ": 922,
      "èĻĳ": 923,
      "åĲĦ": 924,
      "Ġ1": 925,
      "æľª": 926,
      "æİĴ": 927,
      "å·²": 928,
      "æľĪ": 929,
      "èħ": 930,
      "ä¸Ķ": 931,
      "æĸĩç«ł": 932,
      "åıį": 933,
      "æ¼": 934,
      "åĪĨæŀĲ": 935,
      "äº§åĵģ": 936,
      "ç«ĭ": 937,
      "Ġc": 938,
      "å¸¦": 939,
      "æŀģ": 940,
      "åı¥": 941,
      "ç³»ç»Ł": 942,
      "åĪĴ": 943,
      "åıĤ": 944,
      "åİĨ": 945,
      "çŃĶ": 946,
      "é©": 947,
      "è§Ĩ": 948,
      "éĩĳ": 949,
      "åĲ¦": 950,
      "æ²¡æľī": 951,
      "å¿«": 952,
      "è§ģ": 953,
      "æĻ¯": 954,
      "åħį": 955,
      "åķĨ": 956,
      "ç¦": 957,
      "Ġi": 958,
      "ä¹ī": 959,
      "æĺ¯ä¸Ģä¸ª": 960,
      "å§ĭ": 961,
      "çº¿": 962,
      "å¹¿": 963,
      "é¢ĨåŁŁ": 964,
      "æĺŁ": 965,
      "äºĨè§£": 966,
      "```": 967,
      "ç©º": 968,
      "æĽ´åĬł": 969,
      "ou": 970,
      "æĢĿ": 971,
      "æ³¨æĦı": 972,
      "çĽ´": 973,
      "Ġt": 974,
      "20": 975,
      "éĵ": 976,
      "å¤ª": 977,
      "äººç±»": 978,
      "è¯Ńè¨Ģ": 979,
      "ç®Ģ": 980,
      "Ġa": 981,
      "ä½łçļĦ": 982,
      "ä¾¿": 983,
      "éħį": 984,
      "ĸçķ": 985,
      "om": 986,
      "èĮ": 987,
      "åħī": 988,
      "de": 989,
      "æĶ¶": 990,
      "åĩł": 991,
      "æŀĦ": 992,
      "å®īåħ¨": 993,
      "é¦ĸ": 994,
      "Ġth": 995,
      "ä¿ĿæĮģ": 996,
      "çłģ": 997,
      "è§ī": 998,
      "å°ıæĺİ": 999,
      "æµ·": 1000,
      "åĩ½": 1001,
      "è®¾è®¡": 1002,
      "è§Ĵ": 1003,
      "ç§¯": 1004,
      "éĽĨ": 1005,
      "ç»ĥ": 1006,
      "åĽłä¸º": 1007,
      "ç¯": 1008,
      "è¶³": 1009,
      "ic": 1010,
      "åĩ½æķ°": 1011,
      "æ£Ģ": 1012,
      "um": 1013,
      "è½»": 1014,
      "Ġf": 1015,
      "å®ŀçİ°": 1016,
      "Ġp": 1017,
      "æ¶Ī": 1018,
      "èĢĥèĻĳ": 1019,
      "èĩªçĦ¶": 1020,
      "è±¡": 1021,
      "åħ±": 1022,
      "åĶ": 1023,
      "è®¸": 1024,
      "ç»´": 1025,
      "ç¥ŀ": 1026,
      "ä¸ªäºº": 1027,
      "éĢŁ": 1028,
      "æĳ": 1029,
      "æ¬¢": 1030,
      "ç¼ĸ": 1031,
      "ä»¥åıĬ": 1032,
      "æľįåĬ¡": 1033,
      "æĺĵ": 1034,
      "ç¬¦": 1035,
      "æľºåĻ¨": 1036,
      "ç»Ń": 1037,
      "è§£åĨ³": 1038,
      "ä½Ĩæĺ¯": 1039,
      "Ġ-": 1040,
      "åĳ³": 1041,
      "ing": 1042,
      "éĶĢ": 1043,
      "è¯Ħ": 1044,
      "çĥŃ": 1045,
      "ï¼Ľ": 1046,
      "å¤´": 1047,
      "åĸľ": 1048,
      "è¿ĳ": 1049,
      "é¥®": 1050,
      "ç¬¬": 1051,
      "åĲĹ": 1052,
      "éĩĩ": 1053,
      "å¸Ĥåľº": 1054,
      "çĶŁæĪĲ": 1055,
      "è¯ģ": 1056,
      "èĲ¥": 1057,
      "æĸĩåĮĸ": 1058,
      "è¡Ģ": 1059,
      "éĺŁ": 1060,
      "èĬ±": 1061,
      "ç¡®ä¿Ŀ": 1062,
      "è½¬": 1063,
      "çĹĩ": 1064,
      "åĨħå®¹": 1065,
      "æ¸©": 1066,
      "ç©¶": 1067,
      "ä¸»è¦ģ": 1068,
      "äººä»¬": 1069,
      "æ¨¡åŀĭ": 1070,
      "æĪĺ": 1071,
      "çº¢": 1072,
      "éĻ©": 1073,
      "åĳĬ": 1074,
      "çĻ½": 1075,
      "åŁİ": 1076,
      "Ġs": 1077,
      "æ´»åĬ¨": 1078,
      "çĮ": 1079,
      "æ¤": 1080,
      "ä¹ĭéĹ´": 1081,
      "Ġn": 1082,
      "çħ": 1083,
      "éĻ¤": 1084,
      "æĤ£": 1085,
      "è¶Ĭ": 1086,
      "æĸ½": 1087,
      "æĪĳä»¬çļĦ": 1088,
      "èĥ½åĬĽ": 1089,
      "çĪ±": 1090,
      "å¥¹": 1091,
      "ç²¾": 1092,
      "åĲ¬": 1093,
      "ç®¡çĲĨ": 1094,
      "æİ§": 1095,
      "åŃ©": 1096,
      "åĢĻ": 1097,
      "ç½®": 1098,
      "èĤ²": 1099,
      "åĩıå°ĳ": 1100,
      "ä½İ": 1101,
      "æĺ¯ä¸Ģç§į": 1102,
      "åħ»": 1103,
      "çłĶ": 1104,
      "äºĴ": 1105,
      "å¯¹äºİ": 1106,
      "æĺ¯åĲ¦": 1107,
      "åĨį": 1108,
      "è¿ĩç¨ĭ": 1109,
      "å¸Ī": 1110,
      "æĽ´å¤ļ": 1111,
      "æ»¡": 1112,
      "ä»½": 1113,
      "çŁ": 1114,
      "éļı": 1115,
      "èıľ": 1116,
      "èº«ä½ĵ": 1117,
      "è´¹": 1118,
      "æĿĲ": 1119,
      "ĊĠĠĠĠĠĠĠ": 1120,
      "åĽ¾": 1121,
      "ç¯ĩ": 1122,
      "Ġm": 1123,
      "æıı": 1124,
      "ä¸ĵ": 1125,
      "åĲ«": 1126,
      "æľĽ": 1127,
      "è°¢": 1128,
      "æľªæĿ¥": 1129,
      "éģ¿": 1130,
      "Ġre": 1131,
      "æĪĸèĢħ": 1132,
      "ä¸¤ä¸ª": 1133,
      "èĩ³": 1134,
      "è£ħ": 1135,
      "è®Ń": 1136,
      "åĲ¸": 1137,
      "çĶ¨äºİ": 1138,
      "åıĭ": 1139,
      "it": 1140,
      "æķ°åŃĹ": 1141,
      "éĶ®": 1142,
      "æĬķ": 1143,
      "èİ·": 1144,
      "æīĵ": 1145,
      "åħĭ": 1146,
      "åĽ¢": 1147,
      "è®°": 1148,
      "åĥ": 1149,
      "æħ": 1150,
      "è·¯": 1151,
      "ï¼ģ": 1152,
      "å®ļçļĦ": 1153,
      "è¯»": 1154,
      "è¿Ļç§į": 1155,
      "åħ·æľī": 1156,
      "ä¿ĿæĬ¤": 1157,
      "Ġw": 1158,
      "å·²ç»ı": 1159,
      "æĽ´å¥½": 1160,
      "çĽ®æłĩ": 1161,
      "å®¢æĪ·": 1162,
      "èģĶ": 1163,
      "å¿ħ": 1164,
      "èĢģ": 1165,
      "æĲ": 1166,
      "åİĭ": 1167,
      "æļ": 1168,
      "æĵ": 1169,
      "yth": 1170,
      "ç¢": 1171,
      "ç®Ĺæ³ķ": 1172,
      "éļ¾": 1173,
      "çľŁ": 1174,
      "10": 1175,
      "é¸": 1176,
      "ä¹¦": 1177,
      "éľĢæ±Ĥ": 1178,
      "ython": 1179,
      "éĢļå¸¸": 1180,
      "éĺ³": 1181,
      "Ġin": 1182,
      "åĲĥ": 1183,
      "å¯¼èĩ´": 1184,
      "åı¯ä»¥å¸®åĬ©": 1185,
      "å²": 1186,
      "ç¤¾ä¼ļ": 1187,
      "çº¦": 1188,
      "åĬŁèĥ½": 1189,
      "è®¸å¤ļ": 1190,
      "ä¸įåĲĮçļĦ": 1191,
      "è®¤ä¸º": 1192,
      "å¼ł": 1193,
      "åĪĨç±»": 1194,
      "äºĮ": 1195,
      "çĶµå½±": 1196,
      "ä¹ĭä¸Ģ": 1197,
      "æīį": 1198,
      "es": 1199,
      "Ġb": 1200,
      "æĿ¡": 1201,
      "åĥı": 1202,
      "å¤±": 1203,
      "åħħ": 1204,
      "ä»»åĬ¡": 1205,
      "æĪı": 1206,
      "è®¡åĪĴ": 1207,
      "Ġ**": 1208,
      "ç»ĵæŀľ": 1209,
      "éĶĻ": 1210,
      "çĲĨè§£": 1211,
      "åį³": 1212,
      "åĵª": 1213,
      "éģ¿åħį": 1214,
      "ãĢĭ": 1215,
      "ãĢĬ": 1216,
      "å¼Ģå§ĭ": 1217,
      "è´Ń": 1218,
      "and": 1219,
      "æĤ¨çļĦ": 1220,
      "æĸ°çļĦ": 1221,
      "æĽ´å¥½åľ°": 1222,
      "æīĢæľī": 1223,
      "æ¯ıä¸ª": 1224,
      "æĶ¯æĮģ": 1225,
      "å¥³": 1226,
      "åĳ¨": 1227,
      "ion": 1228,
      "éĺ²": 1229,
      "æĹħ": 1230,
      "æĤ£èĢħ": 1231,
      "æĪĳä»¬åı¯ä»¥": 1232,
      "ac": 1233,
      "å¤§çļĦ": 1234,
      "å°½": 1235,
      "Ġthe": 1236,
      "æııè¿°": 1237,
      "è´¨éĩı": 1238,
      "æ£ĢæŁ¥": 1239,
      "åĪ°äºĨ": 1240,
      "åħ³éĶ®": 1241,
      "çĦ¶åĲİ": 1242,
      "åŁİå¸Ĥ": 1243,
      "el": 1244,
      "¤Ĳ": 1245,
      "ä¸Ģç§į": 1246,
      "å¯Į": 1247,
      "è¶£": 1248,
      "èĳ": 1249,
      "çīĩ": 1250,
      "åŃ©åŃĲ": 1251,
      "åı²": 1252,
      "ur": 1253,
      "åħ´": 1254,
      "è¿ĲåĬ¨": 1255,
      "æĪĲä¸º": 1256,
      "æķħ": 1257,
      "ç¨ĭåºı": 1258,
      "æĥħæĦŁ": 1259,
      "é¤Ĳ": 1260,
      "æĪ¿": 1261,
      "æ¸¸æĪı": 1262,
      "ç´¢": 1263,
      "ä»¥ä¸ĭæĺ¯": 1264,
      "åĳ½": 1265,
      "å¢ŀåĬł": 1266,
      "éĻħ": 1267,
      "åĬ¿": 1268,
      "åĩºçİ°": 1269,
      "çłĶç©¶": 1270,
      "æİ¢": 1271,
      "çļĦäºº": 1272,
      "Ġ\"": 1273,
      "ä»£çłģ": 1274,
      "æ¿": 1275,
      "åĸľæ¬¢": 1276,
      "æ¼Ķ": 1277,
      "åı¯èĥ½ä¼ļ": 1278,
      "æ¯Ķå¦Ĥ": 1279,
      "é¦ĸåħĪ": 1280,
      "èĽ": 1281,
      "ç³ĸ": 1282,
      "éĩįè¦ģçļĦ": 1283,
      "åħ³ç³»": 1284,
      "ç¿": 1285,
      "æĬ¥": 1286,
      "èĤī": 1287,
      "ä¸įæĸŃ": 1288,
      "å¸ĥ": 1289,
      "ä¸Ģä¸ĭ": 1290,
      "çª": 1291,
      "åħ·ä½ĵ": 1292,
      "ä»ħ": 1293,
      "èģĮ": 1294,
      "å¯Ĩ": 1295,
      "åıĺåĮĸ": 1296,
      "éĹ¨": 1297,
      "æ¢": 1298,
      "å¯¹è¯Ŀ": 1299,
      "ä¼ģ": 1300,
      "åĦ": 1301,
      "Ġ2": 1302,
      "æ¬¾": 1303,
      "äº«": 1304,
      "æ¿Ģ": 1305,
      "éŁ³ä¹Ĳ": 1306,
      "ge": 1307,
      "ä¹°": 1308,
      "æĶ¿": 1309,
      "åįĩ": 1310,
      "ä¸ĸçķ": 1311,
      "ä¸ĸçķĮ": 1312,
      "as": 1313,
      "lo": 1314,
      "æİ§åĪ¶": 1315,
      "å¾ĭ": 1316,
      "è¥": 1317,
      "am": 1318,
      "AI": 1319,
      "åĲĦç§į": 1320,
      "åħ³äºİ": 1321,
      "å¡": 1322,
      "åĮ»çĶŁ": 1323,
      "ä¸ŃåĽ½": 1324,
      "è¿Ļæł·": 1325,
      "åı¥åŃĲ": 1326,
      "è¥¿": 1327,
      "æį¢": 1328,
      "ä¼ģä¸ļ": 1329,
      "åĦ¿": 1330,
      "å¹²": 1331,
      "åıĳçİ°": 1332,
      "èīº": 1333,
      "åĽ´": 1334,
      "æĸ¯": 1335,
      "èī¯": 1336,
      "é¥®é£Ł": 1337,
      "çŃĸ": 1338,
      "åĶ®": 1339,
      "æĸ¹æ¡Ī": 1340,
      "å®Ŀ": 1341,
      "åºŃ": 1342,
      "ç»ľ": 1343,
      "çĭ¬": 1344,
      "åı·": 1345,
      "çīĮ": 1346,
      "å¯»": 1347,
      "éĻį": 1348,
      "æľĢåĲİ": 1349,
      "åĽ¢éĺŁ": 1350,
      "æŁĵ": 1351,
      "åŃ¦çĶŁ": 1352,
      "çĽ¸åħ³": 1353,
      "ent": 1354,
      "å®ĮæĪĲ": 1355,
      "è®Ńç»ĥ": 1356,
      "æĪĳçļĦ": 1357,
      "çĹĽ": 1358,
      "éĢĤåĲĪ": 1359,
      "ç±³": 1360,
      "éĩĬ": 1361,
      "å¸Į": 1362,
      "äººçļĦ": 1363,
      "éĻ¢": 1364,
      "éĤ£ä¹Ī": 1365,
      "å»ºç«ĭ": 1366,
      "æŃ¤å¤ĸ": 1367,
      "ä¿®": 1368,
      "æŁĲ": 1369,
      "æīĢä»¥": 1370,
      "ä»İèĢĮ": 1371,
      "ç§°": 1372,
      "ç¦»": 1373,
      "çİ°åľ¨": 1374,
      "æķĻèĤ²": 1375,
      "å¹¶ä¸Ķ": 1376,
      "åŃĺåľ¨": 1377,
      "åħ¶ä¸Ń": 1378,
      "im": 1379,
      "åı°": 1380,
      "ä¸»é¢ĺ": 1381,
      "åĸĦ": 1382,
      "ä½ľçĶ¨": 1383,
      "ç»Ī": 1384,
      "å±±": 1385,
      "åħĥç´ł": 1386,
      "èĭ±": 1387,
      "æĴ": 1388,
      "()": 1389,
      "ĊĠĠĠĠĠĠĠĠ": 1390,
      "æĬķèµĦ": 1391,
      "ä¹ĭéĹ´çļĦ": 1392,
      "å¾Īå¤ļ": 1393,
      "int": 1394,
      "æĬĬ": 1395,
      "æ¦": 1396,
      "æĢİ": 1397,
      "æ¤į": 1398,
      "ä½ľä¸º": 1399,
      "æ¯Ķè¾ĥ": 1400,
      "èĽĭ": 1401,
      "ä»ĭ": 1402,
      "æ²¹": 1403,
      "äº§çĶŁ": 1404,
      "åĽŀçŃĶ": 1405,
      "è¡Įä¸º": 1406,
      "ed": 1407,
      "å¨": 1408,
      "éĥ¨åĪĨ": 1409,
      "è¡¨è¾¾": 1410,
      "æľĭ": 1411,
      "å®¶åºŃ": 1412,
      "åĿĩ": 1413,
      "è¾ĵåħ¥": 1414,
      "æĺ¾": 1415,
      "å¾ģ": 1416,
      "æĹ©": 1417,
      "çħ§": 1418,
      "åĽĽ": 1419,
      "ç§ĳåŃ¦": 1420,
      "ro": 1421,
      "æľīæķĪ": 1422,
      "å£°": 1423,
      "Ġo": 1424,
      "é»Ħ": 1425,
      "åĽłç´ł": 1426,
      "åĭ": 1427,
      "å·§": 1428,
      "Ġd": 1429,
      "çŁŃ": 1430,
      "åĪ©çĶ¨": 1431,
      "åı¦": 1432,
      "æĮĳ": 1433,
      "é£Łçī©": 1434,
      "ç§¯æŀģ": 1435,
      "ä»ĸä»¬çļĦ": 1436,
      "æľĭåıĭ": 1437,
      "åŃĹç¬¦": 1438,
      "å¸¦æĿ¥": 1439,
      "ä»Ĭ": 1440,
      "åĪĩ": 1441,
      "åİĨåı²": 1442,
      "éĻĲ": 1443,
      "ä¸Ģæ®µ": 1444,
      "ç½ĳç»ľ": 1445,
      "æĮī": 1446,
      "å°Ŀ": 1447,
      "is": 1448,
      "æ°ĳ": 1449,
      "çĤİ": 1450,
      "æĪĲåĬŁ": 1451,
      "å¼Ĥ": 1452,
      "äºī": 1453,
      "åĿĹ": 1454,
      "çİ¯ä¿Ŀ": 1455,
      "çĽĬ": 1456,
      "é»ĳ": 1457,
      "¾çĹħ": 1458,
      "ç¡®å®ļ": 1459,
      "åĳ¢": 1460,
      "æĢ§åĴĮ": 1461,
      "æĿ¾": 1462,
      "åĮ»çĸĹ": 1463,
      "å®³": 1464,
      "æĿİ": 1465,
      "å¾ĹåĪ°": 1466,
      "è¡¨çİ°": 1467,
      "**ï¼ļ": 1468,
      "èĲ½": 1469,
      "èĦĳ": 1470,
      "ä¸įæĺ¯": 1471,
      "çŁ¥éģĵ": 1472,
      "åı¯ä»¥éĢļè¿ĩ": 1473,
      "Ġh": 1474,
      "èµĦæºĲ": 1475,
      "è´Ł": 1476,
      "æķĪçİĩ": 1477,
      "å±Ĥ": 1478,
      "çļĦå½±åĵį": 1479,
      "åĬ¨çī©": 1480,
      "æĿĤ": 1481,
      "é²": 1482,
      "è§Ĵèī²": 1483,
      "æŃ¢": 1484,
      "åħ¨çĲĥ": 1485,
      "éª¤": 1486,
      "çı": 1487,
      "å¼Ģåıĳ": 1488,
      "æľĢè¿ĳ": 1489,
      "è½¯": 1490,
      "æĭ¥": 1491,
      "è¯¯": 1492,
      "çº§": 1493,
      "èĩªåĬ¨": 1494,
      "Ġ3": 1495,
      "æŃ¥éª¤": 1496,
      "æıĲåıĸ": 1497,
      "ä¸ĬçļĦ": 1498,
      "æĮģç»Ń": 1499,
      "è¦ģæ±Ĥ": 1500,
      "ä¸½": 1501,
      "æľºåĻ¨åŃ¦ä¹ł": 1502,
      "é£İéĻ©": 1503,
      "èŀ": 1504,
      "Â·": 1505,
      "èµ·æĿ¥": 1506,
      "é¡¹çĽ®": 1507,
      "ä¼Ĺ": 1508,
      "åĵģçīĮ": 1509,
      "è¶ħ": 1510,
      "æĽ´å¤ļçļĦ": 1511,
      "æĮĳæĪĺ": 1512,
      "il": 1513,
      "ç»ıéªĮ": 1514,
      "é¼": 1515,
      "äº¤éĢļ": 1516,
      "è®¡ç®Ĺæľº": 1517,
      "åĪĹè¡¨": 1518,
      "èİ·å¾Ĺ": 1519,
      "å·¥åħ·": 1520,
      "å¸ĮæľĽ": 1521,
      "çļĦéĹ®é¢ĺ": 1522,
      "æİª": 1523,
      "çļĦæĺ¯": 1524,
      "ç§ĳæĬĢ": 1525,
      "çĨ": 1526,
      "æĿĲæĸĻ": 1527,
      "æķĪæŀľ": 1528,
      "å®¤": 1529,
      "é¦Ļ": 1530,
      "çģ«": 1531,
      "æĪĳä»¬éľĢè¦ģ": 1532,
      "çļ®": 1533,
      "ut": 1534,
      "æŃĮ": 1535,
      "æķħäºĭ": 1536,
      "å¿µ": 1537,
      "ä»·åĢ¼": 1538,
      "æī¾åĪ°": 1539,
      "éħĴ": 1540,
      "é¾": 1541,
      "ç®Ģåįķ": 1542,
      "åľ°çĲĥ": 1543,
      "æ³Ľ": 1544,
      "ä¸°": 1545,
      "è¿ľ": 1546,
      "åįģ": 1547,
      "ri": 1548,
      "åı¤": 1549,
      "ç¤¾äº¤": 1550,
      "æĿ¥è¯´": 1551,
      "çİ©": 1552,
      "è¯ĨåĪ«": 1553,
      "ä½ĵéªĮ": 1554,
      "çĸ¾çĹħ": 1555,
      "Python": 1556,
      "ç¼º": 1557,
      "ct": 1558,
      "Ġ+": 1559,
      "ç«Ļ": 1560,
      "ul": 1561,
      "æĿĥ": 1562,
      "ç»ĵæŀĦ": 1563,
      "éĶĢåĶ®": 1564,
      "åįı": 1565,
      "Ġto": 1566,
      "æĵį": 1567,
      "æĭī": 1568,
      "å¾Ģ": 1569,
      "åĬłåħ¥": 1570,
      "ä¼¼": 1571,
      "è¿ŀ": 1572,
      "ç»į": 1573,
      "è¾¹": 1574,
      "--": 1575,
      "æĬĢèĥ½": 1576,
      "åĤ": 1577,
      "è¯Ĭ": 1578,
      "æİªæĸ½": 1579,
      "ä»ĭç»į": 1580,
      "åĪ¶ä½ľ": 1581,
      "Ġ'": 1582,
      "æĢ»ä¹ĭ": 1583,
      "æ½": 1584,
      "ä¸¥": 1585,
      "é©¬": 1586,
      "çĽĳ": 1587,
      "åĳĺå·¥": 1588,
      "ex": 1589,
      "èįĲ": 1590,
      "åĪ¶å®ļ": 1591,
      "è®¾å¤ĩ": 1592,
      "æ¯į": 1593,
      "æİ¨èįĲ": 1594,
      "ä¸Ģç¯ĩ": 1595,
      "è¯¦": 1596,
      "çĹĩçĬ¶": 1597,
      "èĮĥ": 1598,
      "å·®": 1599,
      "å±ħ": 1600,
      "ä¸ĵä¸ļ": 1601,
      "ä¸Ģèµ·": 1602,
      "å±ŀ": 1603,
      "åħ³æ³¨": 1604,
      "æ¦Ĥ": 1605,
      "å°Ķ": 1606,
      "èµĽ": 1607,
      "åįİ": 1608,
      "åıĳçĶŁ": 1609,
      "æ¹": 1610,
      "ä¼°": 1611,
      "è§£éĩĬ": 1612,
      "Ġ{": 1613,
      "èµ°": 1614,
      "è®¨": 1615,
      "èŀį": 1616,
      "çĶ·": 1617,
      "ä¸°å¯Į": 1618,
      "å°Ŀè¯ķ": 1619,
      "ä¸²": 1620,
      "çļĦåıĳå±ķ": 1621,
      "å¾®": 1622,
      "åª": 1623,
      "å¾·": 1624,
      "Ġand": 1625,
      "å¤ªéĺ³": 1626,
      "ä»¥ä¸Ĭ": 1627,
      "è¾ĵåĩº": 1628,
      "æ²Ł": 1629,
      "æµİ": 1630,
      "èīºæľ¯": 1631,
      "ä¼łç»Ł": 1632,
      "ä¸įä»ħ": 1633,
      "æĢ§çļĦ": 1634,
      "å©": 1635,
      "å¿ĥçĲĨ": 1636,
      "åıĪ": 1637,
      "è¿ĺæľī": 1638,
      "å¹¿æ³Ľ": 1639,
      "ä¹Łæĺ¯": 1640,
      "Ġ(": 1641,
      "ï¼ļâĢľ": 1642,
      "ç±»åŀĭ": 1643,
      "è¡¡": 1644,
      "è´£": 1645,
      "æŃ£åľ¨": 1646,
      "æĹ¶åĢĻ": 1647,
      "ç»ĩ": 1648,
      "çĶ±äºİ": 1649,
      "åĩĨç¡®": 1650,
      "å°±æĺ¯": 1651,
      "äºĨä¸Ģ": 1652,
      "å£«": 1653,
      "çŃīçŃī": 1654,
      "æħ¢": 1655,
      "av": 1656,
      "è¯¦ç»Ĩ": 1657,
      "æŃ£ç¡®": 1658,
      "çĶ»": 1659,
      "é¢Ħæµĭ": 1660,
      "è¡¨ç¤º": 1661,
      "æĢİä¹Ī": 1662,
      "rint": 1663,
      "ä»ĸçļĦ": 1664,
      "ort": 1665,
      "èį¯çī©": 1666,
      "ç¼ĵ": 1667,
      "äºĶ": 1668,
      "ç»ıæµİ": 1669,
      "åĲĪä½ľ": 1670,
      "åįĹ": 1671,
      "åŁºäºİ": 1672,
      "åħ¬åı¸çļĦ": 1673,
      "å¤įæĿĤ": 1674,
      "éĩıçļĦ": 1675,
      "çī¹å¾ģ": 1676,
      "ch": 1677,
      "æĵįä½ľ": 1678,
      "ä¿ĥ": 1679,
      "åı¯ä»¥ä½¿çĶ¨": 1680,
      "çĭĹ": 1681,
      "éĥ½æĺ¯": 1682,
      "ä»»ä½ķ": 1683,
      "åĬ±": 1684,
      "åł": 1685,
      "ä¸įè¦ģ": 1686,
      "åªĴ": 1687,
      "èįī": 1688,
      "å½ķ": 1689,
      "æĦŁåĪ°": 1690,
      "å½Ĵ": 1691,
      "æłĳ": 1692,
      "æĹłæ³ķ": 1693,
      "æ²ŁéĢļ": 1694,
      "urn": 1695,
      "ä¸Ģä½į": 1696,
      "ĠS": 1697,
      "çŃĶæ¡Ī": 1698,
      "æ´ģ": 1699,
      "æµĭè¯ķ": 1700,
      "çªģ": 1701,
      "çİĭ": 1702,
      "éĩĩåıĸ": 1703,
      "ate": 1704,
      "åİĭåĬĽ": 1705,
      "ä¸ºäºĨ": 1706,
      "é¢ľ": 1707,
      "ç¼ĸåĨĻ": 1708,
      "éĴĪ": 1709,
      "ä½ı": 1710,
      "li": 1711,
      "ä»·æł¼": 1712,
      "çİ°ä»£": 1713,
      "æŀĹ": 1714,
      "æīįèĥ½": 1715,
      "åĮħåĲ«": 1716,
      "åīĤ": 1717,
      "è¯ī": 1718,
      "çĶµåŃĲ": 1719,
      "çļĦéĩįè¦ģ": 1720,
      "æĭ¥æľī": 1721,
      "ad": 1722,
      "è´Ńä¹°": 1723,
      "æ¤įçī©": 1724,
      "ä¼¤": 1725,
      "è®²": 1726,
      "turn": 1727,
      "ĊĠĠ": 1728,
      "æĻļ": 1729,
      "ĊĠ": 1730,
      "è´¢": 1731,
      "æĬĢå·§": 1732,
      "Jo": 1733,
      "ay": 1734,
      "èĥĮ": 1735,
      "éĴŁ": 1736,
      "é¢ĳ": 1737,
      "èĪĴ": 1738,
      "è°ĥæķ´": 1739,
      "çŁ³": 1740,
      "èĨ": 1741,
      "åĵªäºĽ": 1742,
      "Ġ5": 1743,
      "éĩĩçĶ¨": 1744,
      "çŁ¥è¯Ĩ": 1745,
      "çķĻ": 1746,
      "èĪ¬": 1747,
      "åĽŃ": 1748,
      "å¾ħ": 1749,
      "æľºä¼ļ": 1750,
      "ä½łå¥½": 1751,
      "åĪĽéĢł": 1752,
      "åŃ£": 1753,
      "ĸçķ¥": 1754,
      "å¥¶": 1755,
      "åı¯ä»¥åľ¨": 1756,
      "çŃĸçķ¥": 1757,
      "hn": 1758,
      "åªĴä½ĵ": 1759,
      "åŃĹç¬¦ä¸²": 1760,
      "åİŁåĽł": 1761,
      "åĪĿ": 1762,
      "ä¼ĺåĮĸ": 1763,
      "ãĢĢ": 1764,
      "åĩ»": 1765,
      "è¯Ħä¼°": 1766,
      "éļıçĿĢ": 1767,
      "æ¯Ĵ": 1768,
      "ä¸ľ": 1769,
      "ä¸įèĥ½": 1770,
      "è¿Ķ": 1771,
      "æĿ¿": 1772,
      "èĳĹ": 1773,
      "æ³¢": 1774,
      "ç»Ħç»ĩ": 1775,
      "åĩłä¸ª": 1776,
      "éĺħ": 1777,
      "çĶŁçī©": 1778,
      "##": 1779,
      "æĽ²": 1780,
      "çĶŁäº§": 1781,
      "é¸¡": 1782,
      "åĽ°": 1783,
      "John": 1784,
      "):": 1785,
      "num": 1786,
      "çļĦæĸ¹æ³ķ": 1787,
      "æĪĳæĥ³": 1788,
      "è¿ĩç¨ĭä¸Ń": 1789,
      "çĺ": 1790,
      "å¸¸è§ģ": 1791,
      "åĪ¤": 1792,
      "é£İæł¼": 1793,
      "è¿ĺæĺ¯": 1794,
      "ä¸Ģä»½": 1795,
      "ä¸ĭéĿ¢": 1796,
      "Ġreturn": 1797,
      "é±": 1798,
      "åŁ¹": 1799,
      "åħ¸": 1800,
      "åıĹåĪ°": 1801,
      "äº²": 1802,
      "é¢ľèī²": 1803,
      "æł¸": 1804,
      "ç§»": 1805,
      "é±¼": 1806,
      "éģĩ": 1807,
      "åºĵ": 1808,
      "ãĢĤâĢĿ": 1809,
      "éĿĻ": 1810,
      "å®¹æĺĵ": 1811,
      "èĥ½æºĲ": 1812,
      "åĪ»": 1813,
      "åĩĨå¤ĩ": 1814,
      "çŃĳ": 1815,
      "åŁºæľ¬": 1816,
      "çĥ¤": 1817,
      "ä¸ĢæŃ¥": 1818,
      "èĻļ": 1819,
      "ç¿»": 1820,
      "å®ŀéĻħ": 1821,
      "é¡»": 1822,
      "èĭ¹": 1823,
      "è¿Ļæĺ¯": 1824,
      "å²ģ": 1825,
      "èĭ¹æŀľ": 1826,
      "é¢Ŀ": 1827,
      "è¿½": 1828,
      "åħ´è¶£": 1829,
      "æĻ®": 1830,
      "æĭŁ": 1831,
      "éļĲ": 1832,
      "çīĽ": 1833,
      "åºĹ": 1834,
      "ç»Ļåĩº": 1835,
      "èĴ": 1836,
      "Ġy": 1837,
      "ä¸ĩ": 1838,
      "è¿ĶåĽŀ": 1839,
      "ue": 1840,
      "åįķè¯į": 1841,
      "ç´§": 1842,
      "å»ºçŃĳ": 1843,
      "çļĦåľ°": 1844,
      "äºļ": 1845,
      "åıĬæĹ¶": 1846,
      "æķ£": 1847,
      "å¼ķèµ·": 1848,
      "å·´": 1849,
      "å°Ħ": 1850,
      "åĮ»éĻ¢": 1851,
      "åŁºç¡": 1852,
      "è¡Įä¸ļ": 1853,
      "æ±½": 1854,
      "éĨ": 1855,
      "çļĦä¸Ģ": 1856,
      "åŁºç¡Ģ": 1857,
      "åģĩ": 1858,
      "æİĴåºı": 1859,
      "ers": 1860,
      "19": 1861,
      "æĦŁè§ī": 1862,
      "å¢ŀå¼º": 1863,
      "Ġof": 1864,
      "åį¡": 1865,
      "ä¸´": 1866,
      "èĢĮä¸Ķ": 1867,
      "æ±¡": 1868,
      "å½ĵçĦ¶": 1869,
      "12": 1870,
      "åĬŀ": 1871,
      "è¯¢": 1872,
      "æ¶²": 1873,
      "åĳ¼": 1874,
      "å¯»æī¾": 1875,
      "Ġ`": 1876,
      "æ°ĶåĢĻ": 1877,
      "å¥ĩ": 1878,
      "ä¸ĢçĽ´": 1879,
      "ç»¿": 1880,
      "ç¾¤": 1881,
      "äºĨä¸Ģä¸ª": 1882,
      "et": 1883,
      "åıĮ": 1884,
      "åĪĽæĸ°": 1885,
      "åĤ¨": 1886,
      "çĵ": 1887,
      "éħ¸": 1888,
      "Ġfor": 1889,
      "éĺħè¯»": 1890,
      "æ°§": 1891,
      "åĨ³çŃĸ": 1892,
      "æ·»": 1893,
      "æķ°éĩı": 1894,
      "çĶŁåĳ½": 1895,
      "éº": 1896,
      "èĶ": 1897,
      "ç¨³": 1898,
      "çĮ«": 1899,
      "åĬª": 1900,
      "ä»¥ä¾¿": 1901,
      "ĊĠĠĠĠĠĠĠĠĠĠĠ": 1902,
      "èĲ¥éĶĢ": 1903,
      "æ´Ĺ": 1904,
      "ç»¼": 1905,
      "çļĦåºĶçĶ¨": 1906,
      "åĬ©äºİ": 1907,
      "åĪĽå»º": 1908,
      "çī¹çĤ¹": 1909,
      "ç²ī": 1910,
      "ä»¤": 1911,
      "åĿļ": 1912,
      "ä¸Ģå®ļ": 1913,
      "ç¦ı": 1914,
      "é£ŀ": 1915,
      "é²ľ": 1916,
      "ç¥ŀç»ı": 1917,
      "ap": 1918,
      "åľŁ": 1919,
      "éĶĻè¯¯": 1920,
      "id": 1921,
      "ç§ģ": 1922,
      "åĴĸ": 1923,
      "ä½įç½®": 1924,
      "nt": 1925,
      "åĬłå¼º": 1926,
      "åĬªåĬĽ": 1927,
      "ol": 1928,
      "str": 1929,
      "éĢĲ": 1930,
      "æĬĹ": 1931,
      "åĲ¸å¼ķ": 1932,
      "ĠT": 1933,
      "æī§": 1934,
      "ç»Ļå®ļçļĦ": 1935,
      "ot": 1936,
      "çľ¼": 1937,
      "å¿ħé¡»": 1938,
      "å¿«éĢŁ": 1939,
      "å®ĥçļĦ": 1940,
      "å¹´è½»": 1941,
      "åĮĹ": 1942,
      "Ġ0": 1943,
      "å¹³åı°": 1944,
      "ä¸Ģæ¬¡": 1945,
      "å¾ª": 1946,
      "15": 1947,
      "ä¸ĢèĪ¬": 1948,
      "æľīåĬ©äºİ": 1949,
      "æĺ¯ä»Ģä¹Ī": 1950,
      "äº¤æµģ": 1951,
      "Ġ#": 1952,
      "å±Ģ": 1953,
      "æĶ¹åıĺ": 1954,
      "æĥ¯": 1955,
      "èģĮä¸ļ": 1956,
      "åķ¡": 1957,
      "æĭħ": 1958,
      "lic": 1959,
      "æľĢç»Ī": 1960,
      "æİ¢ç´¢": 1961,
      "ä¿ĥè¿Ľ": 1962,
      "ç»ª": 1963,
      "åĮĸçļĦ": 1964,
      "èĩªçĦ¶è¯Ńè¨Ģ": 1965,
      "çĶŁæĢģ": 1966,
      "è½¯ä»¶": 1967,
      "åº¦åĴĮ": 1968,
      "åį°": 1969,
      "çļĦæĥħåĨµ": 1970,
      "åĪĨéĴŁ": 1971,
      "ä¹Łåı¯ä»¥": 1972,
      "æįŁ": 1973,
      "å®ļä¹ī": 1974,
      "åĹ": 1975,
      "åĴĸåķ¡": 1976,
      "èĵ": 1977,
      "çī©è´¨": 1978,
      "åį«": 1979,
      "èĲ¥åħ»": 1980,
      "åī§": 1981,
      "åİħ": 1982,
      "çĳ": 1983,
      "ä½ľåĵģ": 1984,
      "æĳĦ": 1985,
      "å°ıè¯´": 1986,
      "æ©": 1987,
      "åĨ·": 1988,
      "çĩ": 1989,
      "åºľ": 1990,
      ");": 1991,
      "æ±¡æŁĵ": 1992,
      "æķĳ": 1993,
      "un": 1994,
      "ä¸įä¼ļ": 1995,
      "æ¶Īè´¹": 1996,
      "æĹ¥æľŁ": 1997,
      "çģµ": 1998,
      "ŀäºī": 1999,
      "ä¸Ńèį¯": 2000,
      "è¡£": 2001,
      "Ġ4": 2002,
      "æ±½è½¦": 2003,
      "é£Łåĵģ": 2004,
      "å¦Ĥä¸ĭ": 2005,
      "æĶ¹åĸĦ": 2006,
      "éĻįä½İ": 2007,
      "em": 2008,
      "æĥħç»ª": 2009,
      "èĻ½": 2010,
      "éĹ»": 2011,
      "è¯·éĹ®": 2012,
      "ĠA": 2013,
      "æĹħæ¸¸": 2014,
      "æĢĿèĢĥ": 2015,
      "def": 2016,
      "è¾ĳ": 2017,
      "ä»ĺ": 2018,
      "è¶ĭ": 2019,
      "çļĦçĹ": 2020,
      "å°¿": 2021,
      "å°Ĭ": 2022,
      "æİĮ": 2023,
      "ĠC": 2024,
      "æļĸ": 2025,
      "å¤ļç§į": 2026,
      "ord": 2027,
      "å½¢æĪĲ": 2028,
      "åºķ": 2029,
      "å¿Ĺ": 2030,
      "çľł": 2031,
      "çĸ«": 2032,
      "æ¸Ĳ": 2033,
      "éļľ": 2034,
      "éĺ´": 2035,
      "çĿ¡": 2036,
      "ç«¯": 2037,
      "æ±¤": 2038,
      "æ·±åº¦": 2039,
      "ce": 2040,
      "å®«": 2041,
      "å¤ļå°ĳ": 2042,
      "Ġ[": 2043,
      "å½©": 2044,
      "æĳĺ": 2045,
      "ä¹łæĥ¯": 2046,
      "å¹³è¡¡": 2047,
      "000": 2048,
      "æīĭæľº": 2049,
      "ç»§": 2050,
      "åı¶": 2051,
      "æĽ´å¥½çļĦ": 2052,
      "æ·»åĬł": 2053,
      "æł¡": 2054,
      "çī¹åĪ«": 2055,
      "ä»¥ä¸ĭæĺ¯ä¸ĢäºĽ": 2056,
      "èģĶç³»": 2057,
      "æĢ»ç»ĵ": 2058,
      "æ½ľ": 2059,
      "he": 2060,
      "å·¦": 2061,
      "æĢ§èĥ½": 2062,
      "åľ¨è¿Ļä¸ª": 2063,
      "ç©¿": 2064,
      "åľºæĻ¯": 2065,
      "é¼ĵ": 2066,
      "ĠI": 2067,
      "çł´": 2068,
      "çļĦç¤": 2069,
      "æ°´æŀľ": 2070,
      "æľ¨": 2071,
      "åħ±åĲĮ": 2072,
      "éĢĤå½ĵ": 2073,
      "éĤ®": 2074,
      "ä¾Ŀ": 2075,
      "éĢłæĪĲ": 2076,
      "è·Ł": 2077,
      "èĤĿ": 2078,
      "æ²Ļ": 2079,
      "(\"": 2080,
      "è¶ĭåĬ¿": 2081,
      "èī¯å¥½çļĦ": 2082,
      "åıĤä¸İ": 2083,
      "è¯¾": 2084,
      "åıįåºĶ": 2085,
      "æĿ¥è¶Ĭ": 2086,
      "è¿ĻéĩĮ": 2087,
      "æľīåħ³": 2088,
      "30": 2089,
      "æľīä»Ģä¹Ī": 2090,
      "è¯Ĺ": 2091,
      "ä¼ĳ": 2092,
      "èľ": 2093,
      "æĦıä¹ī": 2094,
      "è¶ĬæĿ¥è¶Ĭ": 2095,
      "åı³": 2096,
      "ä¸īä¸ª": 2097,
      "éĿĴ": 2098,
      "èŃ": 2099,
      "ext": 2100,
      "ä½łåı¯ä»¥": 2101,
      "Ġnum": 2102,
      "åįĬ": 2103,
      "å¯Ł": 2104,
      "å¯¹è¯ĿåĨħå®¹": 2105,
      "å¤ļä¸ª": 2106,
      "æĪĲæľ¬": 2107,
      "çķĮ": 2108,
      "äººå·¥æĻºèĥ½æĬĢæľ¯": 2109,
      "æ¥": 2110,
      "æĺ¯æĮĩ": 2111,
      "éĵ¾": 2112,
      "æĿ¡ä»¶": 2113,
      "åıĺå¾Ĺ": 2114,
      "èĶ¬": 2115,
      "çĶ¨çļĦ": 2116,
      "ç¾İåĽ½": 2117,
      "ä¸ĢåĲį": 2118,
      "ä¸ĸ": 2119,
      "èĩªæĪĳ": 2120,
      "us": 2121,
      "æ¨¡å¼ı": 2122,
      "ä¸¥éĩį": 2123,
      "python": 2124,
      "ç¼ĸç¨ĭ": 2125,
      "åĳĬè¯ī": 2126,
      "ç»Ļå®ļ": 2127,
      "ä»£è¡¨": 2128,
      "âĢĿï¼Į": 2129,
      "ä¸¾": 2130,
      "éĢĤçļĦ": 2131,
      "Ġis": 2132,
      "æĶ¿åºľ": 2133,
      "âĢĶ": 2134,
      "èĻ½çĦ¶": 2135,
      "äºĭä»¶": 2136,
      "éŃ": 2137,
      "èĤ¿": 2138,
      "æīĭæľ¯": 2139,
      "åºĶçĶ¨ç¨ĭåºı": 2140,
      "éĢĤåºĶ": 2141,
      "æ´ĭ": 2142,
      "å°Ĩåħ¶": 2143,
      "æ»¡è¶³": 2144,
      "çĨŁ": 2145,
      "å®ļæľŁ": 2146,
      "åı¯æĮģç»Ń": 2147,
      "æĢ¥": 2148,
      "ç¬Ķ": 2149,
      "Ġif": 2150,
      "pt": 2151,
      "æī¿": 2152,
      "æĥ³æ³ķ": 2153,
      "æĹħè¡Į": 2154,
      "æĪĳä¼ļ": 2155,
      "æ°´å¹³": 2156,
      "æĦ¿": 2157,
      "è§īå¾Ĺ": 2158,
      "æĮĩå¯¼": 2159,
      "è¡¥": 2160,
      "è¯ĬæĸŃ": 2161,
      "èĤ¡": 2162,
      "ç»ĦæĪĲ": 2163,
      "èĤĮ": 2164,
      "èĪŀ": 2165,
      "éĥ½æľī": 2166,
      "çĽ®åīį": 2167,
      "è¯ĳ": 2168,
      "ä½³": 2169,
      "æ¯ĶèµĽ": 2170,
      "éĢŁåº¦": 2171,
      "èĶ¬èıľ": 2172,
      "æĺİç¡®": 2173,
      "çĤ¼": 2174,
      "æķ´ä¸ª": 2175,
      "ç¤¾äº¤åªĴä½ĵ": 2176,
      "ve": 2177,
      "ç»ĥä¹ł": 2178,
      "ä»Ĭå¤©": 2179,
      "å®ĥä»¬çļĦ": 2180,
      "åıĤæķ°": 2181,
      "å½ĵåľ°": 2182,
      "Tom": 2183,
      "å°ıçº¢": 2184,
      "äººåĳĺ": 2185,
      "print": 2186,
      "ult": 2187,
      "æķ°æį®éĽĨ": 2188,
      "ver": 2189,
      "ç©ºéĹ´": 2190,
      "å¤ľ": 2191,
      "äºĳ": 2192,
      "åĬĽåĴĮ": 2193,
      "',": 2194,
      "ç»ĻæĪĳ": 2195,
      "çĻĮ": 2196,
      "port": 2197,
      "è¯´æĺİ": 2198,
      "æķ°åŃ¦": 2199,
      "åģļåĩº": 2200,
      "å¿ħè¦ģ": 2201,
      "è±Ĩ": 2202,
      "éĢģ": 2203,
      "èī²çļĦ": 2204,
      "Ġåľ¨": 2205,
      "ï¼īï¼Į": 2206,
      "æī©": 2207,
      "éĢĴ": 2208,
      "åı¦å¤ĸ": 2209,
      "æľºåĻ¨äºº": 2210,
      "Ġl": 2211,
      "ä¸ĭæĿ¥": 2212,
      "ä½¿å¾Ĺ": 2213,
      "éĴĪå¯¹": 2214,
      "çĽĸ": 2215,
      "æµª": 2216,
      "æĺ¯åľ¨": 2217,
      "åķĨä¸ļ": 2218,
      "å¤ı": 2219,
      "ä¼´": 2220,
      "åĪĨäº«": 2221,
      "åĨ°": 2222,
      "æĮīçħ§": 2223,
      "å¦Ĥæŀľä½ł": 2224,
      "æī§è¡Į": 2225,
      "åĪº": 2226,
      "ob": 2227,
      "gh": 2228,
      "è¿İ": 2229,
      "æ¶ī": 2230,
      "æ¹¿": 2231,
      "èĮĥåĽ´": 2232,
      "ke": 2233,
      "æĦıè¯Ĩ": 2234,
      "é©¶": 2235,
      "çļĦæĹ¶éĹ´": 2236,
      "ä¹ĭåīį": 2237,
      "è¡ĮåĬ¨": 2238,
      "æı¡": 2239,
      "åĲĪçĲĨ": 2240,
      "æ´ŀ": 2241,
      "Ġg": 2242,
      "æłĩåĩĨ": 2243,
      "æ··": 2244,
      "åģı": 2245,
      "åĪļ": 2246,
      "åį´": 2247,
      "å½¢å¼ı": 2248,
      "æ¢¦": 2249,
      "æĲŃ": 2250,
      "ç¥¨": 2251,
      "æ¯ıå¤©": 2252,
      "é«ĺçļĦ": 2253,
      "å¤©æ°Ķ": 2254,
      "æĶ¹è¿Ľ": 2255,
      "å©ļ": 2256,
      "æĿ¯": 2257,
      "åıĤåĬł": 2258,
      "éĶ»": 2259,
      "æ³ķå¾ĭ": 2260,
      "çĬ¶æĢģ": 2261,
      "è¿Ļç¯ĩ": 2262,
      "XX": 2263,
      "Ġ}": 2264,
      "åģľ": 2265,
      "çŃīæĸ¹éĿ¢": 2266,
      "é¡¾": 2267,
      "if": 2268,
      "åķĨåĵģ": 2269,
      "éĤ®ä»¶": 2270,
      "ï¼īãĢĤ": 2271,
      "èĩªçĦ¶è¯Ńè¨Ģå¤ĦçĲĨ": 2272,
      "ame": 2273,
      "åĨ²": 2274,
      "æĺ¯çļĦ": 2275,
      "Ġ/": 2276,
      "çĭ¬çī¹": 2277,
      "è®°å½ķ": 2278,
      "ä¸Ńå¿ĥ": 2279,
      "æĤ¨åı¯ä»¥": 2280,
      "ä»į": 2281,
      "çļĦç¾": 2282,
      "è§£åĨ³æĸ¹æ¡Ī": 2283,
      "èĥŀ": 2284,
      "ä»¥ç¡®ä¿Ŀ": 2285,
      "èĥĥ": 2286,
      "è®¨è®º": 2287,
      "äº®": 2288,
      "ä¹ĺ": 2289,
      "ç«ŀäºī": 2290,
      "res": 2291,
      "ç¤¼": 2292,
      "èĹ": 2293,
      "Ġse": 2294,
      "çĮ®": 2295,
      "éĢı": 2296,
      "æľīè¶£": 2297,
      "Ġr": 2298,
      "éĶ»çĤ¼": 2299,
      "è§ĦåĪĴ": 2300,
      "é¼ĵåĬ±": 2301,
      "åıªæľī": 2302,
      "é¥°": 2303,
      "æŃ£å¸¸": 2304,
      "éĿł": 2305,
      "æĸ¹åĲĳ": 2306,
      "ĥåľ": 2307,
      "è¿ĺåı¯ä»¥": 2308,
      "ow": 2309,
      "åĨľ": 2310,
      "éĺ¿": 2311,
      "åŀĥåľ": 2312,
      "åŀĥåľ¾": 2313,
      "èĸ": 2314,
      "ç§ĺ": 2315,
      "æĳĺè¦ģ": 2316,
      "å¨ģ": 2317,
      "æķ°ç»Ħ": 2318,
      "è¿Ļä¸ªéĹ®é¢ĺ": 2319,
      "å°ļ": 2320,
      "çĦ¶èĢĮ": 2321,
      "åºĶå¯¹": 2322,
      "èĩªçĶ±": 2323,
      "æĪĲåĳĺ": 2324,
      "åĳ¼åĲ¸": 2325,
      "çºª": 2326,
      "ç¼ĵè§£": 2327,
      "èħº": 2328,
      "éĴ±": 2329,
      "æĹ¥å¸¸": 2330,
      "çĽĲ": 2331,
      "ç½Ĺ": 2332,
      "æĶ¾æĿ¾": 2333,
      "éĽ¨": 2334,
      "è·Ŀ": 2335,
      "éĩĳèŀį": 2336,
      "åĨ³å®ļ": 2337,
      "äº¬": 2338,
      "å®ŀéªĮ": 2339,
      "ä¹ħ": 2340,
      "é¤Ĳåİħ": 2341,
      "èħ¹": 2342,
      "è¿Ľä¸ĢæŃ¥": 2343,
      "é¢ĺçĽ®": 2344,
      "åħħæ»¡": 2345,
      "arr": 2346,
      "åħ³éĶ®è¯į": 2347,
      "æĲľ": 2348,
      "é¢Ĺ": 2349,
      "ä¹³": 2350,
      "æľīäºĽ": 2351,
      "è½¬æį¢": 2352,
      "çľĭåĪ°": 2353,
      "åº§": 2354,
      "èĥĮæĻ¯": 2355,
      "åĲįç§°": 2356,
      "è§ĤçĤ¹": 2357,
      "è°¢è°¢": 2358,
      "æĦŁè°¢": 2359,
      "æ¸©åº¦": 2360,
      "âĢĿãĢĤ": 2361,
      "èŃ¦": 2362,
      "ç»§ç»Ń": 2363,
      "å·¨": 2364,
      "æıĲåĩº": 2365,
      "ç»Ĩèĥŀ": 2366,
      "åį±": 2367,
      "å¹³åĿĩ": 2368,
      "æİ¥åıĹ": 2369,
      "Ġ<": 2370,
      "é¦Ĩ": 2371,
      "ç½ĳç«Ļ": 2372,
      "èĵĿ": 2373,
      "å¦Ī": 2374,
      "åºĬ": 2375,
      "ç»ıåİĨ": 2376,
      "50": 2377,
      "çļĦå·¥ä½ľ": 2378,
      "æıĲä¾ĽäºĨ": 2379,
      "èĮ¶": 2380,
      "ä»Ķ": 2381,
      "è¿Ļæ®µ": 2382,
      "è¶³å¤Ł": 2383,
      "æĹı": 2384,
      "ode": 2385,
      "éģĹ": 2386,
      "èĤ¤": 2387,
      "åĸĿ": 2388,
      "ç»ıå¸¸": 2389,
      "è·ĳ": 2390,
      "é¡º": 2391,
      "ç¬¬äºĮ": 2392,
      "æ¯ıä¸ªäºº": 2393,
      "é«ĺæķĪ": 2394,
      "æıĲåįĩ": 2395,
      "ä½łä»¬": 2396,
      "å¦ĤæŀľæĤ¨": 2397,
      "ab": 2398,
      "åŃķ": 2399,
      "å¹¸": 2400,
      "ä¸įåı¯": 2401,
      "çĽ´æİ¥": 2402,
      "éķ¿æľŁ": 2403,
      "çļĦä¿¡æģ¯": 2404,
      "è¯ŃéŁ³": 2405,
      "èģļ": 2406,
      "ĠM": 2407,
      "èģĶç½ĳ": 2408,
      "æĸ°éĹ»": 2409,
      "åľ°åĮº": 2410,
      "ç¿»è¯ĳ": 2411,
      "æ°ĶåĢĻåıĺåĮĸ": 2412,
      "__": 2413,
      "çļĦçł": 2414,
      "åĲ§": 2415,
      "é¦Ī": 2416,
      "é©¾": 2417,
      "éĿ¢çļĦ": 2418,
      "èĦĤ": 2419,
      "ç³ĸæŀľ": 2420,
      "ĠĠĠĠĠĠĠĠ": 2421,
      "éĻ¤äºĨ": 2422,
      "æİ¨å¹¿": 2423,
      "éģį": 2424,
      "çļĦçĶŁæ´»": 2425,
      "äºĭæĥħ": 2426,
      "çĦ¦": 2427,
      "202": 2428,
      "å¤§å°ı": 2429,
      "åĲĮæĹ¶ä¹Ł": 2430,
      "éļĲç§ģ": 2431,
      "å¾ªçİ¯": 2432,
      "å®ĺ": 2433,
      "æĬ¥åĳĬ": 2434,
      "æĽ¿": 2435,
      "Ġ|": 2436,
      "çļĦç¾İ": 2437,
      "éľĢè¦ģæ³¨æĦı": 2438,
      "åĪ¤æĸŃ": 2439,
      "åĽº": 2440,
      "æ¶īåıĬ": 2441,
      "ç£": 2442,
      "çļĦæķ°æį®": 2443,
      "ation": 2444,
      "åĵĪ": 2445,
      "è´£ä»»": 2446,
      "å°¼": 2447,
      "æ·±åħ¥": 2448,
      "oo": 2449,
      "æĶ¿çŃĸ": 2450,
      "è®¿": 2451,
      "æ¯Ľ": 2452,
      "çļĦæĹ¶åĢĻ": 2453,
      "ä¸ªæĢ§": 2454,
      "æŀ¶": 2455,
      "å®ĩ": 2456,
      "è¿Ļä¸Ģ": 2457,
      "æĪĲéķ¿": 2458,
      "çļĦä¸»è¦ģ": 2459,
      "ç»ĵåĲĪ": 2460,
      "æĬ½": 2461,
      "ç®±": 2462,
      "ĠB": 2463,
      "åĨĴ": 2464,
      "åı¯ä»¥è®©": 2465,
      "ä½Ļ": 2466,
      "çº³": 2467,
      "ma": 2468,
      "åıįé¦Ī": 2469,
      "åķĬ": 2470,
      "æ´²": 2471,
      "çļĦè¯Ŀ": 2472,
      "ä¿Ŀè¯ģ": 2473,
      "ä¸ºä»Ģä¹Ī": 2474,
      "åı«": 2475,
      "æ³¨éĩį": 2476,
      "ĠæĪĳ": 2477,
      "åĿı": 2478,
      "èĢģå¸Ī": 2479,
      "åŃĺåĤ¨": 2480,
      "åĿĲ": 2481,
      "Ġst": 2482,
      "çĶ²": 2483,
      "çļĦçľ": 2484,
      "éĵ¶": 2485,
      "æĺ¥": 2486,
      "ç»Ŀ": 2487,
      "éĢĶ": 2488,
      "å®£": 2489,
      "åĽ°éļ¾": 2490,
      "æĶ»": 2491,
      "çĥ§": 2492,
      "ç»´æĬ¤": 2493,
      "çļĦå»ºè®®": 2494,
      "æĬĺ": 2495,
      "èĽĭçĻ½": 2496,
      "Ġå°Ĩ": 2497,
      "¹ģ": 2498,
      "åĢĴ": 2499,
      "å°ıæĹ¶": 2500,
      "èĤł": 2501,
      "å¾Ħ": 2502,
      "åı¯èĥ½æĺ¯": 2503,
      "ç¬¦åĲĪ": 2504,
      "éĵģ": 2505,
      "èĳĹåĲį": 2506,
      "æ¸ħæ´ģ": 2507,
      "è¸": 2508,
      "çĸ¼": 2509,
      "æĴŃ": 2510,
      "å®ł": 2511,
      "100": 2512,
      "å¤«": 2513,
      "ç¨³å®ļ": 2514,
      "åĲİçļĦ": 2515,
      "å±ķç¤º": 2516,
      "åĽ¾åĥı": 2517,
      "è¾¾åĪ°": 2518,
      "å·¥ç¨ĭ": 2519,
      "ä¸įéĶĻ": 2520,
      "çĻ¾": 2521,
      "tr": 2522,
      "æĲľç´¢": 2523,
      "çī©çĲĨ": 2524,
      "ç¼©": 2525,
      "æŁĲäºĽ": 2526,
      "å³": 2527,
      "çĽĺ": 2528,
      "18": 2529,
      "æľĢå¤§": 2530,
      "æĦŁåıĹ": 2531,
      "æ¶Īè´¹èĢħ": 2532,
      "æģ¶": 2533,
      "åĮĸåŃ¦": 2534,
      "å¥ĸ": 2535,
      "èª": 2536,
      "çģ¯": 2537,
      "å¹¿åĳĬ": 2538,
      "åįļ": 2539,
      "æĥ³è¦ģ": 2540,
      "ĠP": 2541,
      "æİĮæı¡": 2542,
      "æĸĩåŃ¦": 2543,
      "åī©": 2544,
      "çļĦæĸ¹å¼ı": 2545,
      "çĬ¶åĨµ": 2546,
      "ä¸ļåĬ¡": 2547,
      "è·µ": 2548,
      "æŃ»": 2549,
      "ata": 2550,
      "èİ·åıĸ": 2551,
      "å®Ī": 2552,
      "Ġv": 2553,
      "ç¢³": 2554,
      "å¡ĳ": 2555,
      "æĢĢ": 2556,
      "é¸Ł": 2557,
      "åĬ³": 2558,
      "æ¦Ĥå¿µ": 2559,
      "çĥĪ": 2560,
      "èĥľ": 2561,
      "ub": 2562,
      "èĦļ": 2563,
      "è¾£": 2564,
      "æľīçĿĢ": 2565,
      "åĲĪéĢĤçļĦ": 2566,
      "å¼ºè°ĥ": 2567,
      "è¿Ļç¯ĩæĸĩç«ł": 2568,
      "å®łçī©": 2569,
      "ir": 2570,
      "ç©ºæ°Ķ": 2571,
      "è®¾ç½®": 2572,
      "çļĦç¤¾": 2573,
      "))": 2574,
      "éĢĲæ¸Ĳ": 2575,
      "æ¬¢è¿İ": 2576,
      "å¸¸è§ģçļĦ": 2577,
      "çº¸": 2578,
      "ä»Ķç»Ĩ": 2579,
      "ä¾ĭåŃĲ": 2580,
      "æķı": 2581,
      "é¾Ļ": 2582,
      "èĪĴéĢĤ": 2583,
      "è¡ĮæĺŁ": 2584,
      "lf": 2585,
      "æ®µèĲ½": 2586,
      "ä¼¦": 2587,
      "æĽ¾": 2588,
      "ç®ĢåįķçļĦ": 2589,
      "è´Ńçī©": 2590,
      "ä¸įè¿ĩ": 2591,
      "åħ¬åħ±": 2592,
      "èĢĲ": 2593,
      "èıĮ": 2594,
      "åĨĽ": 2595,
      "å¹¶åľ¨": 2596,
      "ç»ĨèĬĤ": 2597,
      "çīĪ": 2598,
      "æ¸ħæĻ": 2599,
      "éĺ¶": 2600,
      "op": 2601,
      "é¾Ħ": 2602,
      "éĩİ": 2603,
      "åĩºæĿ¥": 2604,
      "put": 2605,
      "åĺ": 2606,
      "Ġ6": 2607,
      "åĩĢ": 2608,
      "å®ŀè·µ": 2609,
      "äº«åıĹ": 2610,
      "æµģç¨ĭ": 2611,
      "å®Įåħ¨": 2612,
      "end": 2613,
      "çĸĳ": 2614,
      "å¤ļæł·": 2615,
      "\",": 2616,
      "æ³¡": 2617,
      "åħ¶æ¬¡": 2618,
      "ç¹ģ": 2619,
      "çİ°å®ŀ": 2620,
      "æļ´": 2621,
      "å°Ĭéĩį": 2622,
      "çķ¥": 2623,
      "èĤ¥": 2624,
      "åĴ¨": 2625,
      "æ¶¦": 2626,
      "æ²³": 2627,
      "å°Ĩä¼ļ": 2628,
      "è´¢åĬ¡": 2629,
      "æ·±åº¦åŃ¦ä¹ł": 2630,
      "åĴ¨è¯¢": 2631,
      "äºĴåĬ¨": 2632,
      "çļĦéľĢæ±Ĥ": 2633,
      "èĤº": 2634,
      "é¥Ń": 2635,
      "éħ±": 2636,
      "åģ¥èº«": 2637,
      "Ġyou": 2638,
      "çıŃ": 2639,
      "è·Ŀç¦»": 2640,
      "ä¸ŃæıĲåıĸ": 2641,
      "è¿ŀæİ¥": 2642,
      "çħ®": 2643,
      "é©¾é©¶": 2644,
      "æĩ": 2645,
      "éģµ": 2646,
      "ain": 2647,
      "ç²¾ç¥ŀ": 2648,
      "çİ°è±¡": 2649,
      "å½ĵåīį": 2650,
      "çĽ¸å¯¹": 2651,
      "ç¡¬": 2652,
      "è§ĦåĪĻ": 2653,
      "éĩįæĸ°": 2654,
      "åı¥è¯Ŀ": 2655,
      "éª¨": 2656,
      "å®¶å±ħ": 2657,
      "è´§": 2658,
      "åľ¨çº¿": 2659,
      "æłĩé¢ĺ": 2660,
      "çİ©å®¶": 2661,
      "åŁ¹è®Ń": 2662,
      "èĪª": 2663,
      "ind": 2664,
      "Bob": 2665,
      "çĶŁéķ¿": 2666,
      "åįĥ": 2667,
      "éĺ²æŃ¢": 2668,
      "å®Ļ": 2669,
      "æ¼«": 2670,
      "çĽ¸ä¿¡": 2671,
      "çļĦæĸĩç«ł": 2672,
      "æĥĬ": 2673,
      "lice": 2674,
      "è¿ĺéľĢè¦ģ": 2675,
      "çĽ¸åĲĮ": 2676,
      "åºĶçļĦ": 2677,
      "åį³åı¯": 2678,
      "çļĦçłĶ": 2679,
      "éĻĲåĪ¶": 2680,
      "å°¤": 2681,
      "å±ŀäºİ": 2682,
      "å¿Ĩ": 2683,
      "æĦıè§ģ": 2684,
      "çĶŁç´ł": 2685,
      "ç¤¾åĮº": 2686,
      "çĽ¸äºĴ": 2687,
      "Ġe": 2688,
      "æľºæŀĦ": 2689,
      "åĪºæ¿Ģ": 2690,
      "è°Ī": 2691,
      "ght": 2692,
      "Ġ8": 2693,
      "å®ĩå®Ļ": 2694,
      "ä¼ĺåĬ¿": 2695,
      "æ¸ħæĻ°": 2696,
      "åĬĽçļĦ": 2697,
      "è¾Ĩ": 2698,
      "åĴĮåħ¶ä»ĸ": 2699,
      "ä¹Łä¼ļ": 2700,
      "èĤ¾": 2701,
      "ç§Ģ": 2702,
      "éĢĢ": 2703,
      "å¤§éĩı": 2704,
      "è´µ": 2705,
      "å¢ŀéķ¿": 2706,
      "æľĢä½³": 2707,
      "æľªæĿ¥çļĦ": 2708,
      "æĿŁ": 2709,
      "å¤§éĩıçļĦ": 2710,
      "ew": 2711,
      "çī©åĵģ": 2712,
      "æ²ī": 2713,
      "åľĨ": 2714,
      "ç³»åĪĹ": 2715,
      "æĦŁæŁĵ": 2716,
      "æĲŃéħį": 2717,
      "å¥³æĢ§": 2718,
      "çļĦç¬": 2719,
      "çŃ¾": 2720,
      "ä¸Ģæ®µå¯¹è¯Ŀ": 2721,
      "å®ŀæĸ½": 2722,
      "æĥħåĨµä¸ĭ": 2723,
      "å®¡": 2724,
      "all": 2725,
      "åĨįæ¬¡": 2726,
      "pl": 2727,
      "ava": 2728,
      "èĹı": 2729,
      "åı¯èĥ½éľĢè¦ģ": 2730,
      "èģĬ": 2731,
      "è¿½æ±Ĥ": 2732,
      "åĬĽéĩı": 2733,
      "è®©æĪĳ": 2734,
      "å¯¹è±¡": 2735,
      "æĶ¶éĽĨ": 2736,
      "åįĪ": 2737,
      "æĢĿç»´": 2738,
      "ass": 2739,
      "æ¤Ĵ": 2740,
      "æĢĿæĥ³": 2741,
      "æĪĳè®¤ä¸º": 2742,
      "ime": 2743,
      "ç¤ºä¾ĭ": 2744,
      "åĪĨä¸º": 2745,
      "out": 2746,
      "çĺ¤": 2747,
      "åŃ¦æł¡": 2748,
      "çĶŁæ´»ä¸Ń": 2749,
      "éľ²": 2750,
      "çĽ¸åħ³çļĦ": 2751,
      "åı£æĦŁ": 2752,
      "å·ŀ": 2753,
      "æ£®": 2754,
      "é¡µ": 2755,
      "è·³": 2756,
      "qu": 2757,
      "è¯¾ç¨ĭ": 2758,
      "åıĺéĩı": 2759,
      "èĦī": 2760,
      "æŃ£ç¡®çļĦ": 2761,
      "æľīå¾Īå¤ļ": 2762,
      "å¯»æ±Ĥ": 2763,
      "æľīä¸Ģ": 2764,
      "éĶħ": 2765,
      "çĤĴ": 2766,
      "æĢ»æĺ¯": 2767,
      "ä½ĵçļĦ": 2768,
      "éĿ¢ä¸´": 2769,
      "è§¦": 2770,
      "èĦı": 2771,
      "è¯Ħè®º": 2772,
      "æİĴæĶ¾": 2773,
      "åº¦çļĦ": 2774,
      "åĪĽä½ľ": 2775,
      "ç¥Ŀ": 2776,
      "çĲĨè®º": 2777,
      "äºĴèģĶç½ĳ": 2778,
      "éŁ": 2779,
      "è´¡": 2780,
      "æ··åĲĪ": 2781,
      "ç¬ĳ": 2782,
      "æµĵ": 2783,
      "Ġ==": 2784,
      "åĲ¯": 2785,
      "èĥ¡": 2786,
      "æĹ¶å°ļ": 2787,
      "è§Ĵèī²ä¿¡æģ¯": 2788,
      "Alice": 2789,
      "æİ¨åĬ¨": 2790,
      "åĲ¬èµ·æĿ¥": 2791,
      "åŃ¦ä¹łåĴĮ": 2792,
      "ä½łéľĢè¦ģ": 2793,
      "æĸĩä»¶": 2794,
      "è¡¨æĺİ": 2795,
      "çļĦçĥ": 2796,
      "è´ŁéĿ¢": 2797,
      "ç¾İä¸½": 2798,
      "éĨĴ": 2799,
      "çĪ¶": 2800,
      "rom": 2801,
      "çĽ¸ä¼¼": 2802,
      "è½½": 2803,
      "ç»©": 2804,
      "çģ¾": 2805,
      "Ġcon": 2806,
      "ä¼ĳæģ¯": 2807,
      "ith": 2808,
      "11": 2809,
      "åħ°": 2810,
      "æ±ĩ": 2811,
      "å¹´é¾Ħ": 2812,
      "è´¡çĮ®": 2813,
      "æĮ¥": 2814,
      "çĹħæĥħ": 2815,
      "å¯Ĵ": 2816,
      "çİĽ": 2817,
      "æľŁéĹ´": 2818,
      "one": 2819,
      "éĹ®é¢ĺçļĦ": 2820,
      "æĭĽ": 2821,
      "iz": 2822,
      "åĪ¶éĢł": 2823,
      "æĭ¿": 2824,
      "çļĦçĪ": 2825,
      "ä¼ļè®®": 2826,
      "éĢīé¡¹": 2827,
      "è¡¨éĿ¢": 2828,
      "åĮ»åŃ¦": 2829,
      "ack": 2830,
      "åĳĪ": 2831,
      "æľīä¸Ģä¸ª": 2832,
      "ter": 2833,
      "ç¾İé£Ł": 2834,
      "æĬĢæľ¯çļĦ": 2835,
      "éĢĤå½ĵçļĦ": 2836,
      "è°ĥæŁ¥": 2837,
      "..": 2838,
      "çĶļ": 2839,
      "ount": 2840,
      "åĨħéĥ¨": 2841,
      "ä¸°å¯ĮçļĦ": 2842,
      "Ġx": 2843,
      "æĹ¶éĹ´åĴĮ": 2844,
      "æĺ¾ç¤º": 2845,
      "åĩıè½»": 2846,
      "æĹłè®º": 2847,
      "é¢Ħéĺ²": 2848,
      "çĭ¬çī¹çļĦ": 2849,
      "éĿ¢å¯¹": 2850,
      "get": 2851,
      "éģĵå¾·": 2852,
      "éĩįå¤į": 2853,
      "åį«çĶŁ": 2854,
      "è§Ĥå¯Ł": 2855,
      "25": 2856,
      "ä¼½": 2857,
      "ä¹İ": 2858,
      "çļĦçłĶç©¶": 2859,
      "æ·¡": 2860,
      "æĶ¾åľ¨": 2861,
      "è§Ĩè§ī": 2862,
      "ĠD": 2863,
      "ä¸Ģæł·": 2864,
      "æĸ¹ä¾¿": 2865,
      "èĩªèº«": 2866,
      "ç»¼åĲĪ": 2867,
      "å®īæİĴ": 2868,
      "ä¸Ŀ": 2869,
      "å¹¸ç¦ı": 2870,
      "art": 2871,
      "äººç±»çļĦ": 2872,
      "æŁĶ": 2873,
      "ç«¥": 2874,
      "ç»Ļä½ł": 2875,
      "æķ°æį®çļĦ": 2876,
      "åĳĬè¯īæĪĳ": 2877,
      "age": 2878,
      "çĬ¯": 2879,
      "æľ«": 2880,
      "çĦ¦èĻĳ": 2881,
      "è¿Ļæĺ¯ä¸Ģä¸ª": 2882,
      "âĢ¦": 2883,
      "åĮºåŁŁ": 2884,
      "çļĦçĹĩ": 2885,
      "åĮĢ": 2886,
      "è¿·": 2887,
      "Ġ*": 2888,
      "ç§»åĬ¨": 2889,
      "å®Ŀå®Ŀ": 2890,
      "çļĦçĹĩçĬ¶": 2891,
      "æł¸å¿ĥ": 2892,
      "åĪĨåĪ«": 2893,
      "æģ¢": 2894,
      "é¢Ħç®Ĺ": 2895,
      "å¦ĩ": 2896,
      "ĠW": 2897,
      "åıĸå¾Ĺ": 2898,
      "æķ´æķ°": 2899,
      "åĭĩ": 2900,
      "åĮ¹": 2901,
      "åĪĨéħį": 2902,
      "ï¼īï¼ļ": 2903,
      "æ±ģ": 2904,
      "çļĦåħ³éĶ®": 2905,
      "å¾Īå¥½": 2906,
      "æĪĳä»¬åºĶè¯¥": 2907,
      "è¿Ľåħ¥": 2908,
      "æľĢå¥½": 2909,
      "ĠL": 2910,
      "è¿ĩåº¦": 2911,
      "èĥ½éĩı": 2912,
      "ĠF": 2913,
      "200": 2914,
      "è¿ĽæŃ¥": 2915,
      "uc": 2916,
      "éĻĦ": 2917,
      "èĭ¦": 2918,
      "ä¹ı": 2919,
      "èĭ±è¯Ń": 2920,
      "æĤ¨å¥½": 2921,
      "çļĦåľ°æĸ¹": 2922,
      "Ġbe": 2923,
      "æľīæķĪçļĦ": 2924,
      "æĸ¹åīĤ": 2925,
      "èĩªåĬ¨åĮĸ": 2926,
      "å¼Ĥå¸¸": 2927,
      "è¯ļ": 2928,
      "çľģ": 2929,
      "è¿Ĳè¡Į": 2930,
      "å¯¹æĸ¹": 2931,
      "çĶµè§Ĩ": 2932,
      "æģ¢å¤į": 2933,
      "å¥ı": 2934,
      "ä½ľèĢħ": 2935,
      "å»¶": 2936,
      "æµģè¡Į": 2937,
      "\")": 2938,
      "å·®å¼Ĥ": 2939,
      "iv": 2940,
      "èĢ³": 2941,
      "èĨľ": 2942,
      "æ±ł": 2943,
      "å¤§åŃ¦": 2944,
      "å¹´çļĦ": 2945,
      "éķ¿åº¦": 2946,
      "è¯»èĢħ": 2947,
      "æİ¢è®¨": 2948,
      "ĠN": 2949,
      "ä¼ĺçĤ¹": 2950,
      "ľä¼½": 2951,
      "å¼±": 2952,
      "è¿ĩåİ»": 2953,
      "ä½łèĥ½": 2954,
      "('": 2955,
      "é¢Ĩå¯¼": 2956,
      "å°¤åħ¶": 2957,
      "åħħåĪĨ": 2958,
      "éĿ©": 2959,
      "åĨĻä½ľ": 2960,
      "æĶ¯ä»ĺ": 2961,
      "Ġ10": 2962,
      "ç»ıåħ¸": 2963,
      "æĦıåĳ³": 2964,
      "ç³ķ": 2965,
      "è¯Ńæ³ķ": 2966,
      "èķ": 2967,
      "ä¹ĭåĲİ": 2968,
      "con": 2969,
      "çĶľ": 2970,
      "ç§ĭ": 2971,
      "çķħ": 2972,
      "è®¢": 2973,
      "æµ·æ´ĭ": 2974,
      "æĪĳä»¬å°Ĩ": 2975,
      "éŀ": 2976,
      "åħįçĸ«": 2977,
      "äººçī©": 2978,
      "æĶ¶åħ¥": 2979,
      "å§Ĩ": 2980,
      "è½®": 2981,
      "éªĮè¯ģ": 2982,
      "list": 2983,
      "éļıæľº": 2984,
      "çļĦç¼": 2985,
      "çĽ´åĪ°": 2986,
      "æĺ¯çĶ±": 2987,
      "æĽ´æĸ°": 2988,
      "æļĹ": 2989,
      "å¥Ĺ": 2990,
      "Ġ7": 2991,
      "çľŁæŃ£": 2992,
      "æİ¥ä¸ĭæĿ¥": 2993,
      "çĿ¡çľł": 2994,
      "çĽ®çļĦ": 2995,
      "éĢĤçĶ¨äºİ": 2996,
      "ĊãĢĢ": 2997,
      "èĲ¨": 2998,
      "æľºåĪ¶": 2999,
      "è®©æĪĳä»¬": 3000,
      "æ¬§": 3001,
      "æĦī": 3002,
      "ç»¿èī²": 3003,
      "åĨĻä¸Ģç¯ĩ": 3004,
      "äºĨä¸ĢäºĽ": 3005,
      "å¹¶ä¸į": 3006,
      "èµı": 3007,
      "æ»¡æĦı": 3008,
      "å®½": 3009,
      "ä¹Łæľī": 3010,
      "æ£Ģæµĭ": 3011,
      "æĦıåĳ³çĿĢ": 3012,
      "åįł": 3013,
      "ç¨ĭåº¦": 3014,
      "ä¾§": 3015,
      "est": 3016,
      "å®ľ": 3017,
      "ile": 3018,
      "æĺł": 3019,
      "ç¼ĸåĨĻä¸Ģä¸ª": 3020,
      "è®¿éĹ®": 3021,
      "äº¤æĺĵ": 3022,
      "çĻ»": 3023,
      "èĦ±": 3024,
      "ction": 3025,
      "å¸ģ": 3026,
      "ç¨İ": 3027,
      "Java": 3028,
      "çĶŁæĢģç³»ç»Ł": 3029,
      "çļĦç¨": 3030,
      "å®¶åħ·": 3031,
      "çī¹å®ļ": 3032,
      "çļĦå°ı": 3033,
      "å¤§å®¶": 3034,
      "å¥¥": 3035,
      "è¯Ħä»·": 3036,
      "éĢĤéĩı": 3037,
      "æ°Ľ": 3038,
      "çīĻ": 3039,
      "å®īè£ħ": 3040,
      "ç¥ŀç»ıç½ĳç»ľ": 3041,
      "æ»ĳ": 3042,
      "èĢĹ": 3043,
      "å¤§åĪ©": 3044,
      "åĢ¾": 3045,
      "æīĢè¿°": 3046,
      "ç§°ä¸º": 3047,
      "è¹": 3048,
      "é«ĺåħ´": 3049,
      "çĩĥ": 3050,
      "éĹŃ": 3051,
      "åĴ³": 3052,
      "16": 3053,
      "åį·": 3054,
      "çļĦé£Łçī©": 3055,
      "ç»ıè¿ĩ": 3056,
      "åħŃ": 3057,
      "çĶ¨æĿ¥": 3058,
      "çĶļèĩ³": 3059,
      "æĢ»çļĦ": 3060,
      "æĪĳåı¯ä»¥": 3061,
      "æĺİæĺ¾": 3062,
      "ä¼ĺç§Ģ": 3063,
      "åħ·ä½ĵçļĦ": 3064,
      "æ°§åĮĸ": 3065,
      "å¡ŀ": 3066,
      "å²Ľ": 3067,
      "ĠH": 3068,
      "éº»": 3069,
      "ç»ĺ": 3070,
      "çĶµèĦĳ": 3071,
      "æĥħèĬĤ": 3072,
      "çļĦæĥħæĦŁ": 3073,
      "éĿŀå¸¸éĩįè¦ģçļĦ": 3074,
      "éŃĶ": 3075,
      "è£ħé¥°": 3076,
      "å®£ä¼ł": 3077,
      "###": 3078,
      "åıªæĺ¯": 3079,
      "for": 3080,
      "ç»¼ä¸Ĭ": 3081,
      "éĤ£äºĽ": 3082,
      "ä»įçĦ¶": 3083,
      "åĿļæĮģ": 3084,
      "Ġres": 3085,
      "ä¸Ģå®¶": 3086,
      "èĩ³å°ĳ": 3087,
      "ç¾İåħĥ": 3088,
      "äº§åĵģçļĦ": 3089,
      "é¢Ī": 3090,
      "åĲ¬è¯´": 3091,
      "è§Ĩé¢ĳ": 3092,
      "æ½ľåľ¨": 3093,
      "å¿ħè¦ģçļĦ": 3094,
      "ä¸ĸçºª": 3095,
      "åŃĲçļĦ": 3096,
      "æ¥¼": 3097,
      "æ®Ĭ": 3098,
      "åħ¬åĽŃ": 3099,
      "æ·±åĪ»": 3100,
      "ç»´çĶŁç´ł": 3101,
      "é¹": 3102,
      "åĵģè´¨": 3103,
      "åĳ¨åĽ´": 3104,
      "±ä¹Ĳ": 3105,
      "åı¯éĿł": 3106,
      "åĩºäºĨ": 3107,
      "æķĳæ²»": 3108,
      "éĺ³åħī": 3109,
      "å·¦åı³": 3110,
      "å³°": 3111,
      "æĢ»çļĦæĿ¥è¯´": 3112,
      "åİļ": 3113,
      "æīĢéľĢ": 3114,
      "ä¿¡ä»»": 3115,
      "ãĢĤ\\": 3116,
      "åŁºåĽł": 3117,
      "å¢Ļ": 3118,
      "Ġprint": 3119,
      "æł·çļĦ": 3120,
      "cri": 3121,
      "æĭĮ": 3122,
      "è¢ĭ": 3123,
      "ä¸įçŁ¥éģĵ": 3124,
      "æĿ¥èĩª": 3125,
      "èĻļæĭŁ": 3126,
      "æĳĦåħ¥": 3127,
      "ä¸įè¶³": 3128,
      "è®¤è¯Ĩ": 3129,
      "string": 3130,
      "Ġel": 3131,
      "ess": 3132,
      "å½¢è±¡": 3133,
      "çİī": 3134,
      "éĻĪ": 3135,
      "éĢ»": 3136,
      "è¶ħè¿ĩ": 3137,
      "å¥¹çļĦ": 3138,
      "å¿ĺ": 3139,
      "import": 3140,
      "èĳ±": 3141,
      "åģĩè®¾": 3142,
      "åŃ¦ä¼ļ": 3143,
      "è´¥": 3144,
      "ä¸ºæĤ¨": 3145,
      "çļĦæĬĢæľ¯": 3146,
      "æķ°æį®åĪĨæŀĲ": 3147,
      "ä½¿åħ¶": 3148,
      "åŃĹæ¯į": 3149,
      "æĪĲåĪĨ": 3150,
      "è§Ħå¾ĭ": 3151,
      "åŁ¹åħ»": 3152,
      "è½¬æį¢ä¸º": 3153,
      "åĪĽæĦı": 3154,
      "éķľ": 3155,
      "ä»¤äºº": 3156,
      "ag": 3157,
      "è´¹çĶ¨": 3158,
      "å¹¶å°Ĩ": 3159,
      "æĶ¾åħ¥": 3160,
      "å¤ļçļĦ": 3161,
      "ld": 3162,
      "ĊĊ": 3163,
      "ist": 3164,
      "å£°éŁ³": 3165,
      "Ġj": 3166,
      "åı¯èĥ½çļĦ": 3167,
      "æ±ī": 3168,
      "æĢķ": 3169,
      "çĹħæ¯Ĵ": 3170,
      "Ġ//": 3171,
      "ĠR": 3172,
      "éģĩåĪ°": 3173,
      "çĶ¨æĪ·çļĦ": 3174,
      "çī¹æ®Ĭ": 3175,
      "ple": 3176,
      "éĽ¶": 3177,
      "åĽ½éĻħ": 3178,
      "pe": 3179,
      "åĬ¨ä½ľ": 3180,
      "14": 3181,
      "è®²è¿°": 3182,
      "èĽĭçĻ½è´¨": 3183,
      "çĳľä¼½": 3184,
      "åĢ¼å¾Ĺ": 3185,
      "çĶŁæĪĲä¸Ģä¸ª": 3186,
      "èĤª": 3187,
      "èĦĤèĤª": 3188,
      "åĴĮæĸĩåĮĸ": 3189,
      "éľĢè¦ģèĢĥèĻĳ": 3190,
      "Ġwh": 3191,
      "çĥŁ": 3192,
      "ci": 3193,
      "ä¸ľè¥¿": 3194,
      "åĽ½å®¶": 3195,
      "Ġä½¿çĶ¨": 3196,
      "æī°": 3197,
      "ä¿®æĶ¹": 3198,
      "è¦ģæ³¨æĦı": 3199,
      "ä½įäºİ": 3200,
      "æĹ¶æľŁ": 3201,
      "æľīæīĢ": 3202,
      "ç»ĦåĲĪ": 3203,
      "åĪĽå»ºä¸Ģä¸ª": 3204,
      "çĽ¸åºĶçļĦ": 3205,
      "å±ĭ": 3206,
      "ä¸Ĭè¿°": 3207,
      "åĮ¹éħį": 3208,
      "os": 3209,
      "Ġ9": 3210,
      "æĹĭ": 3211,
      "act": 3212,
      "ä¸»ä¹ī": 3213,
      "æĸ¹éĿ¢çļĦ": 3214,
      "word": 3215,
      "éĩıåŃĲ": 3216,
      "å°½ç®¡": 3217,
      "Ġde": 3218,
      "é»ĳæ´ŀ": 3219,
      "cript": 3220,
      "åıĳå¸ĥ": 3221,
      "éĢ»è¾ĳ": 3222,
      "äºĪ": 3223,
      "æ¨¡æĭŁ": 3224,
      "ç»¼ä¸ĬæīĢè¿°": 3225,
      "ç±»ä¼¼": 3226,
      "ä¸ŃæľĢ": 3227,
      "åĮĹäº¬": 3228,
      "éĽª": 3229,
      "çļĦä¸Ģä¸ª": 3230,
      "åºĶçĶ¨äºİ": 3231,
      "ĠĠĠĠĠĠĠ": 3232,
      "èĻ«": 3233,
      "text": 3234,
      "é¡¶": 3235,
      "æ©Ļ": 3236,
      "åģ¥åº·çļĦ": 3237,
      "æĶ»åĩ»": 3238,
      "ç½ª": 3239,
      "ç²Ĵ": 3240,
      "æ´¾": 3241,
      "ç¬¬ä¸Ģ": 3242,
      "æİī": 3243,
      "æķĪçİĩåĴĮ": 3244,
      "è°±": 3245,
      "ç¢į": 3246,
      "çĶŁåŃĺ": 3247,
      "åıĳæĮ¥": 3248,
      "ĠÃ": 3249,
      "ç¼ĸè¾ĳ": 3250,
      "èĩªè¡Į": 3251,
      "æĦıæĢĿ": 3252,
      "è®¾æĸ½": 3253,
      "è½»æĿ¾": 3254,
      "è°ģ": 3255,
      "åı¯ä»¥æł¹æį®": 3256,
      "è§Ĥä¼Ĺ": 3257,
      "éĥ½ä¼ļ": 3258,
      "éľĩ": 3259,
      "å¯Ĩçłģ": 3260,
      "æĪ¿éĹ´": 3261,
      "ä¸ŃåĮ»": 3262,
      "å¹»": 3263,
      "ä¸ĬæľĢ": 3264,
      "å¿Ļ": 3265,
      "åįµ": 3266,
      "æģĲ": 3267,
      "è®©äºº": 3268,
      "çļ®èĤ¤": 3269,
      "èĭ¥": 3270,
      "éĺ¶æ®µ": 3271,
      "od": 3272,
      "èĥ¸": 3273,
      "å°¾": 3274,
      "ç§ĳåŃ¦å®¶": 3275,
      "ore": 3276,
      "å¼łä¸ī": 3277,
      "è¶³å¤ŁçļĦ": 3278,
      "ç§¯æŀģçļĦ": 3279,
      "è´Ŀ": 3280,
      "Ġma": 3281,
      "æĸĹ": 3282,
      "å°ģ": 3283,
      "çŃīé¢ĨåŁŁ": 3284,
      "èĳĹåĲįçļĦ": 3285,
      "è¿Ļå°Ĩ": 3286,
      "æ³Ħ": 3287,
      "ä¿Ŀåģ¥": 3288,
      "åĿĩåĮĢ": 3289,
      "è°·": 3290,
      "çĽĳæµĭ": 3291,
      "åĿĢ": 3292,
      "è¸ª": 3293,
      "Ġas": 3294,
      "æĿ¥æºĲ": 3295,
      "éĥģ": 3296,
      "é¡¿": 3297,
      "ç¼ºçĤ¹": 3298,
      "Ġit": 3299,
      "æī¹": 3300,
      "å®¤åĨħ": 3301,
      "å»ºè®¾": 3302,
      "è½¦è¾Ĩ": 3303,
      "ment": 3304,
      "èĬĤçĤ¹": 3305,
      "å¼ķèµ·çļĦ": 3306,
      "æĹ¨": 3307,
      "è°ĥçĶ¨": 3308,
      "éļĶ": 3309,
      "æľĿ": 3310,
      "ĠE": 3311,
      "ç¬¬ä¸ī": 3312,
      "æ£®æŀĹ": 3313,
      "çļĦç½": 3314,
      "ange": 3315,
      "äººçĶŁ": 3316,
      "æľīåĵªäºĽ": 3317,
      "com": 3318,
      "Ġon": 3319,
      "å¿«ä¹Ĳ": 3320,
      "åŃ¤": 3321,
      "æĭį": 3322,
      "æĪĲä¸ºäºĨ": 3323,
      "âĢĶâĢĶ": 3324,
      "èĦ¸": 3325,
      "éŀĭ": 3326,
      "è§Ī": 3327,
      "éĺ»": 3328,
      "åĦ¿ç«¥": 3329,
      "ç±į": 3330,
      "çļĦç©": 3331,
      "æ¡Ĩ": 3332,
      "çĲĨè§£åĴĮ": 3333,
      "nd": 3334,
      "çļĦç²": 3335,
      "æ¡£": 3336,
      "èĢĮä¸įæĺ¯": 3337,
      "AIæĬĢæľ¯": 3338,
      "èĤ¡ç¥¨": 3339,
      "éĿ¢ç§¯": 3340,
      "æ°¸": 3341,
      "çĶ³": 3342,
      "çĶµåŃĲéĤ®ä»¶": 3343,
      "ĠçļĦ": 3344,
      "èĩªä¿¡": 3345,
      "Ġch": 3346,
      "per": 3347,
      "æıĴ": 3348,
      "çĸ¼çĹĽ": 3349,
      "é¥¼": 3350,
      "è¾ħ": 3351,
      "åľ°æĸ¹": 3352,
      "æĪĳå¾Ī": 3353,
      "æĻ¯çĤ¹": 3354,
      "æĪĳæĺ¯": 3355,
      "40": 3356,
      "æĸ°é²ľ": 3357,
      "èĤĮèĤī": 3358,
      "éº¦": 3359,
      "åľ¨ä¸Ģèµ·": 3360,
      "çļĦç¬¬": 3361,
      "é«ĺåº¦": 3362,
      "é¸¡èĽĭ": 3363,
      "å¸®æĪĳ": 3364,
      "çļĦçģ": 3365,
      "ç±»åĪ«": 3366,
      "æ¨¡åŀĭçļĦ": 3367,
      "åºıåĪĹ": 3368,
      "èħ¿": 3369,
      "èģĺ": 3370,
      "å¹¶æıĲä¾Ľ": 3371,
      "æľīçļĦ": 3372,
      "æł¼å¼ı": 3373,
      "ig": 3374,
      "èī¾": 3375,
      "è¡Ģåİĭ": 3376,
      "éĺµ": 3377,
      "å¡ĳæĸĻ": 3378,
      "Ġle": 3379,
      "æĹ¢": 3380,
      "çªĹ": 3381,
      "æķ¬": 3382,
      "æŃ¦": 3383,
      "åĢŁ": 3384,
      "ç¾İåĳ³": 3385,
      "è´¦": 3386,
      "çļĦçŁ¥": 3387,
      "æĦıå¤§åĪ©": 3388,
      "èªī": 3389,
      "åī©ä¸ĭ": 3390,
      "åĪĨå¸ĥ": 3391,
      "å°º": 3392,
      "åİŁçĲĨ": 3393,
      "åı¯æĮģç»Ńåıĳå±ķ": 3394,
      "bers": 3395,
      "ç±»åŀĭçļĦ": 3396,
      "å¨±ä¹Ĳ": 3397,
      "è¾Ľ": 3398,
      "è´Łè´£": 3399,
      "åĸľæ¬¢çļĦ": 3400,
      "è§Ħæ¨¡": 3401,
      "å®ĥåı¯ä»¥": 3402,
      "åĩºçļĦ": 3403,
      "æĭ¼": 3404,
      "æ»©": 3405,
      "æĥł": 3406,
      "å¡Ķ": 3407,
      "ine": 3408,
      "å°½åı¯èĥ½": 3409,
      "åĳ³éģĵ": 3410,
      "æİ¨çĲĨ": 3411,
      "æĬ¥éģĵ": 3412,
      "çĭ¬ç«ĭ": 3413,
      "eb": 3414,
      "èĽĭç³ķ": 3415,
      "å¼ĥ": 3416,
      "åıĹæ¬¢è¿İ": 3417,
      "ä»Ģä¹Īæĺ¯": 3418,
      "ä¸Ģç»Ħ": 3419,
      "ä»ĸäºº": 3420,
      "æĸĩåĮĸåĴĮ": 3421,
      "æĿ¥å®ŀçİ°": 3422,
      "ĠG": 3423,
      "åĵ²": 3424,
      "çļĦéĩįè¦ģæĢ§": 3425,
      "å¹³æĹ¶": 3426,
      "çļĦçİ¯å¢ĥ": 3427,
      "åľ¨å®¶": 3428,
      "æĸĩæľ¬ä¸Ń": 3429,
      "åĩī": 3430,
      "æģĴ": 3431,
      "å¼ĢæĶ¾": 3432,
      "åĽĬ": 3433,
      "èµĸ": 3434,
      "our": 3435,
      "çļĦå®īåħ¨": 3436,
      "åĲĦä¸ª": 3437,
      "åı¤ä»£": 3438,
      "çļĦæķħäºĭ": 3439,
      "ity": 3440,
      "è§£åĨ³éĹ®é¢ĺ": 3441,
      "åıĤèĢĥ": 3442,
      "èµĦéĩĳ": 3443,
      "çľŁçļĦ": 3444,
      "éĥ¨éĹ¨": 3445,
      "ä½Ľ": 3446,
      "ä»·åĢ¼è§Ĥ": 3447,
      "ä¸ĵæ³¨": 3448,
      "è¿Ļæĺ¯ä¸Ģ": 3449,
      "ä½łè®¤ä¸º": 3450,
      "èµŀ": 3451,
      "åįıä½ľ": 3452,
      "æŀĦå»º": 3453,
      "æĿĳ": 3454,
      "ç¡®å®ŀ": 3455,
      "ç¥ŀç§ĺ": 3456,
      "æ°Ķä½ĵ": 3457,
      "å¼¹": 3458,
      "ä¸¸": 3459,
      "çĶµè¯Ŀ": 3460,
      "åĨ¬": 3461,
      "åı¯ä»¥å¸®åĬ©ä½ł": 3462,
      "æĿ°": 3463,
      "ä»¥ä¸ĭæĺ¯ä¸Ģ": 3464,
      "åºŁ": 3465,
      "æıĲä¾ĽçļĦ": 3466,
      "æľīæ²¡æľī": 3467,
      "æĢģåº¦": 3468,
      "å½¼": 3469,
      "ä¼łéĢĴ": 3470,
      "ans": 3471,
      "çļĦå¤§": 3472,
      "æĪĳä¹Ł": 3473,
      "è§Ħå®ļ": 3474,
      "Ġthat": 3475,
      "å®ŀä½ĵ": 3476,
      "é£ŁæĿĲ": 3477,
      "çīĽå¥¶": 3478,
      "åįģåĪĨ": 3479,
      "æĻļä¸Ĭ": 3480,
      "ç»ĵæĿŁ": 3481,
      "çļĦåİŁåĽł": 3482,
      "çİĽä¸½": 3483,
      "åı¦ä¸Ģä¸ª": 3484,
      "æ£Ĵ": 3485,
      "åĲįåŃĹ": 3486,
      "éĥ¨çĶµå½±": 3487,
      "ä»¥ä¸ĭåĩłä¸ª": 3488,
      "13": 3489,
      "å®¶äºº": 3490,
      "èļ": 3491,
      "ç¦ģ": 3492,
      "æŃĮæĽ²": 3493,
      "åı£åĳ³": 3494,
      "æĻºèĥ½å®¶å±ħ": 3495,
      "æľĹ": 3496,
      "æľīæķĪåľ°": 3497,
      "ink": 3498,
      "æĪĳéľĢè¦ģ": 3499,
      "ç®Ģæ´ģ": 3500,
      "ç¼ºä¹ı": 3501,
      "å¤įæĿĤçļĦ": 3502,
      "ä¿Ŀéļľ": 3503,
      "60": 3504,
      "ence": 3505,
      "è®°å¿Ĩ": 3506,
      "è®¤çŁ¥": 3507,
      "å°±åı¯ä»¥": 3508,
      "æ½®": 3509,
      "å®Įæķ´": 3510,
      "å«": 3511,
      "æĹ¥æľ¬": 3512,
      "æĹ¶ä»£": 3513,
      "èĭı": 3514,
      "åľ¨ä¸Ģä¸ª": 3515,
      "ç´¯": 3516,
      "çĪ±æĥħ": 3517,
      "ç»ıçĲĨ": 3518,
      "æ³³": 3519,
      "é½": 3520,
      "åĪĹåĩº": 3521,
      "17": 3522,
      "å¹ķ": 3523,
      "åħ·å¤ĩ": 3524,
      "æĮĩæłĩ": 3525,
      "çļĦé£İéĻ©": 3526,
      "æ¬£": 3527,
      "æıĲåĪ°": 3528,
      "æ¯ıæ¬¡": 3529,
      "ç¡®è®¤": 3530,
      "èĥģ": 3531,
      "å°½éĩı": 3532,
      "æ¡Į": 3533,
      "çĿ£": 3534,
      "æŁ¥æī¾": 3535,
      "æīĢæľīçļĦ": 3536,
      "æĬ±": 3537,
      "ç»Łè®¡": 3538,
      "æ°ĽåĽ´": 3539,
      "å°±ä¼ļ": 3540,
      "åĵ¥": 3541,
      "çī©ä½ĵ": 3542,
      "Ġtr": 3543,
      "åĮĸåĴĮ": 3544,
      "æľ¬ä¹¦": 3545,
      "ä¸Ńæĸĩ": 3546,
      "æĲħ": 3547,
      "ä¼łæĴŃ": 3548,
      "è§Ĵåº¦": 3549,
      "ä»Ķç»Ĩæ£ĢæŁ¥": 3550,
      "')": 3551,
      "åı¯ä»¥æıĲé«ĺ": 3552,
      "æĦŁåħ´è¶£": 3553,
      "ï¼ŁâĢĿ": 3554,
      "ase": 3555,
      "åĪĨåŃĲ": 3556,
      "ily": 3557,
      "åĳĪçİ°": 3558,
      "ä¸įèī¯": 3559,
      "èĢħçļĦ": 3560,
      "éĩįè§Ĩ": 3561,
      "çļĦç©º": 3562,
      "æİĪ": 3563,
      "åĪĢ": 3564,
      "æł¹æį®ç»Ļå®ļçļĦ": 3565,
      "å½¢çĬ¶": 3566,
      "ä¸Ĭåįĩ": 3567,
      "è¯ģæĺİ": 3568,
      "åı¯ä»¥éĢīæĭ©": 3569,
      "çĹħäºº": 3570,
      "åĮºåĿĹ": 3571,
      "è¯ģæį®": 3572,
      "åħ«": 3573,
      "éģįåİĨ": 3574,
      "æ¹ĸ": 3575,
      "è·¨": 3576,
      "éĿŀå¸¸éĩįè¦ģ": 3577,
      "æĤ¨éľĢè¦ģ": 3578,
      "è¿Ľè¡ĮåĪĨç±»": 3579,
      "çĸ²": 3580,
      "çº¤": 3581,
      "ä¸ĭéĻį": 3582,
      "éļľç¢į": 3583,
      "å´": 3584,
      "æį·": 3585,
      "æĺ¯åĲ¦æľī": 3586,
      "åĴĮç¤¾ä¼ļ": 3587,
      "oc": 3588,
      "å¾Īæľī": 3589,
      "è°ĥèĬĤ": 3590,
      "é»ĺ": 3591,
      "å¯¹æīĭ": 3592,
      "':": 3593,
      "äºĭå®ŀ": 3594,
      "èī²å½©": 3595,
      "up": 3596,
      "æ·ĭ": 3597,
      "åĪĽä¸ļ": 3598,
      "èĮĦ": 3599,
      "val": 3600,
      "æĬĳ": 3601,
      "å¹´è½»çļĦ": 3602,
      "æŃ§": 3603,
      "åĴĮæľįåĬ¡": 3604,
      "ä»ĸä»¬çļĦå¯¹è¯ĿåĨħå®¹": 3605,
      "ä¹ĭå¤ĸ": 3606,
      "éĵ¶è¡Į": 3607,
      "åĲ«æľī": 3608,
      "åĴĮåıĳå±ķ": 3609,
      "ĊĠĠĠĠĠĠĠĠĠĠĠĠĠĠĠ": 3610,
      "å±ķçİ°": 3611,
      "Ġim": 3612,
      "å¥ĭ": 3613,
      "çľĭçľĭ": 3614,
      "çļĦçĪ±": 3615,
      "èħĶ": 3616,
      "å±ı": 3617,
      "Ġwith": 3618,
      "Ġself": 3619,
      "èĥĨ": 3620,
      "å¿½": 3621,
      "çĪ±å¥½": 3622,
      "çĶŁæĪĲä¸Ģæ®µ": 3623,
      "é¡¾å®¢": 3624,
      "Ġint": 3625,
      "çļĦä½¿çĶ¨": 3626,
      "åĵ²åŃ¦": 3627,
      "æĭħå¿ĥ": 3628,
      "ä¸¤ç§į": 3629,
      "è¯įæ±ĩ": 3630,
      "æŁĲä¸ª": 3631,
      "ä»ª": 3632,
      "åı¯ä»¥å¸®åĬ©æĤ¨": 3633,
      "ï¼ĮâĢľ": 3634,
      "çĨĬ": 3635,
      "é£ŁçĶ¨": 3636,
      "å¿ĥæĥħ": 3637,
      "ç§įç±»": 3638,
      "ft": 3639,
      "æĮĩåįĹ": 3640,
      "åıĺæļĸ": 3641,
      "ä¸Ģå®ļçļĦ": 3642,
      "èľľ": 3643,
      "å·¥ä¸ļ": 3644,
      "æĲħæĭĮ": 3645,
      "my": 3646,
      "å·§åħĭ": 3647,
      "åľ°çĤ¹": 3648,
      "çıį": 3649,
      "å¨ģèĥģ": 3650,
      "æħ§": 3651,
      "çº¢èī²": 3652,
      "å¹ħ": 3653,
      "ice": 3654,
      "æ»¤": 3655,
      "è®ºæĸĩ": 3656,
      "äº¤äºĴ": 3657,
      "data": 3658,
      "åĽŀçŃĶéĹ®é¢ĺ": 3659,
      "NA": 3660,
      "æ±Ł": 3661,
      "ä¸Ģæ¬¾": 3662,
      "äººå·¥æĻºèĥ½åľ¨": 3663,
      "èĥİ": 3664,
      "éļ¾ä»¥": 3665,
      "æĺĵäºİ": 3666,
      "ä¹¦ç±į": 3667,
      "éľĢè¦ģæľī": 3668,
      "æµ®": 3669,
      "å§¿": 3670,
      "çļĦå¥½": 3671,
      "ä¸İåħ¶ä»ĸ": 3672,
      "çļĦåŁºç¡Ģ": 3673,
      "èĴľ": 3674,
      "äºĴçĽ¸": 3675,
      "æľĢéĩįè¦ģçļĦ": 3676,
      "èī¯å¥½": 3677,
      "è¡Ĺ": 3678,
      "çļĦç½ĳ": 3679,
      "æĺ¯ä¸Ģä½į": 3680,
      "ç»ĵè®º": 3681,
      "ä¹±": 3682,
      "çļĦç³": 3683,
      "å½ĵçĦ¶åı¯ä»¥": 3684,
      "ä¿ĿéĻ©": 3685,
      "å¸¦æĿ¥äºĨ": 3686,
      "å¯¿": 3687,
      "åĶ±": 3688,
      "åĲįä¸º": 3689,
      "çļĦçŁ¥è¯Ĩ": 3690,
      "éķ¿æĹ¶éĹ´": 3691,
      "</": 3692,
      "èĿ": 3693,
      "éĿ¢è¯ķ": 3694,
      "éĵħ": 3695,
      "éªĳ": 3696,
      "æķĻåŃ¦": 3697,
      "è½¬åĮĸ": 3698,
      "éķĩ": 3699,
      "log": 3700,
      "è¡Ģç®¡": 3701,
      "åĽłä¸ºå®ĥ": 3702,
      "åºĶè¯¥æĺ¯": 3703,
      "çļĦçĽ®æłĩ": 3704,
      "çļĦç«": 3705,
      "æĿĢ": 3706,
      "è²": 3707,
      "èĭĹ": 3708,
      "Em": 3709,
      "å¤§æ°Ķ": 3710,
      "çļĦæ²»çĸĹ": 3711,
      "lass": 3712,
      "çľĭèµ·æĿ¥": 3713,
      "å°ıçļĦ": 3714,
      "æıĲç¤º": 3715,
      "å·¨å¤§çļĦ": 3716,
      "äºĭé¡¹": 3717,
      "çĹ«": 3718,
      "çŀ": 3719,
      "æĸĩåŃĹ": 3720,
      "åľ°åĿĢ": 3721,
      "åħĪçĶŁ": 3722,
      "æĽ¾ç»ı": 3723,
      "æĪĳåľ¨": 3724,
      "çŃīæĸ¹å¼ı": 3725,
      "èº«ä½ĵåģ¥åº·": 3726,
      "å¤ªéĺ³ç³»": 3727,
      "Ġ$": 3728,
      "çģµæ´»": 3729,
      "åįĸ": 3730,
      "åį±éĻ©": 3731,
      "Luc": 3732,
      "å¿ĥæĢģ": 3733,
      "æīĺ": 3734,
      "æ¸ł": 3735,
      "çļĦçĭ": 3736,
      "æĬĢæľ¯åĴĮ": 3737,
      "è¿¹": 3738,
      "åĬ¨åĬĽ": 3739,
      "çŃīçĹĩçĬ¶": 3740,
      "å§ĭç»Ī": 3741,
      "ä¾µ": 3742,
      "èĪ¹": 3743,
      "çļĦåŁºæľ¬": 3744,
      "å¡«": 3745,
      "åŃ£èĬĤ": 3746,
      "()`": 3747,
      "èĥ½åĬĽåĴĮ": 3748,
      "é¥®æĸĻ": 3749,
      "ç¾İçļĦ": 3750,
      "ä¹Łä¸į": 3751,
      "çĵ¶": 3752,
      "ç§Ł": 3753,
      "ect": 3754,
      "'s": 3755,
      "æµªè´¹": 3756,
      "æľŁæľĽ": 3757,
      "æ¸©æļĸ": 3758,
      "çŃīäºİ": 3759,
      "ç´§å¼ł": 3760,
      "çļĦç¥": 3761,
      "çºł": 3762,
      "ĠĠĊĠĠ": 3763,
      "ä¸ĵå®¶": 3764,
      "éļıæĹ¶": 3765,
      "---": 3766,
      "åĲĪåĲĮ": 3767,
      "åĨħçļĦ": 3768,
      "è¿Ļæł·çļĦ": 3769,
      "éĽĨä¸Ń": 3770,
      "æ¶µ": 3771,
      "å®Ĺ": 3772,
      "å¦Īå¦Ī": 3773,
      "æ¼ı": 3774,
      "åĮºåĿĹéĵ¾": 3775,
      "çļĦä¸»é¢ĺ": 3776,
      "åı¯ä»¥å°Ĩ": 3777,
      "æĽ´å®¹æĺĵ": 3778,
      "ä¸Ģä¸ªäºº": 3779,
      "ber": 3780,
      "çļĦçĹħ": 3781,
      "æıĲéĨĴ": 3782,
      "æĪĲåĬŁçļĦ": 3783,
      "500": 3784,
      "åħħè¶³": 3785,
      "åĨ²çªģ": 3786,
      "2021": 3787,
      "çªģçĦ¶": 3788,
      "ä¸ªèĭ¹æŀľ": 3789,
      "æľīçĤ¹": 3790,
      "åģ¶": 3791,
      "çļĦè¿ĩç¨ĭ": 3792,
      "çİ¯å¢ĥä¿ĿæĬ¤": 3793,
      "æĦŁåıĹåĪ°": 3794,
      "æľĪç»ı": 3795,
      "é¡ºåºı": 3796,
      "ç¾İä¸½çļĦ": 3797,
      "app": 3798,
      "åľ¨äºİ": 3799,
      "éĽħ": 3800,
      "æ¸łéģĵ": 3801,
      "å§ľ": 3802,
      "åĽ¢éĺŁæĪĲåĳĺ": 3803,
      "çº¤ç»´": 3804,
      "ä¸Ģåıª": 3805,
      "åī¯": 3806,
      "éĩĮçļĦ": 3807,
      "æ¸¸æ³³": 3808,
      "æ¬¡æķ°": 3809,
      "åıĬåħ¶": 3810,
      "åıĮæĸ¹": 3811,
      "æĿ¥çļĦ": 3812,
      "Ġarr": 3813,
      "éħįåĲĪ": 3814,
      "å·¥ç¨ĭå¸Ī": 3815,
      "äº¿": 3816,
      "çķª": 3817,
      "åĿ¦": 3818,
      "å£¤": 3819,
      "è¡¨æ¼Ķ": 3820,
      "åłĤ": 3821,
      "è¦Ĩ": 3822,
      "ä¾Ŀèµĸ": 3823,
      "åİ»åĮ»éĻ¢": 3824,
      "åīª": 3825,
      "ä¸ĥ": 3826,
      "Ġpro": 3827,
      "çľŁå®ŀ": 3828,
      "æīĵåį°": 3829,
      "å»ºè®®æĤ¨": 3830,
      "low": 3831,
      "Ġ20": 3832,
      "äººéĻħ": 3833,
      "Ġresult": 3834,
      "çļĦçĥŃ": 3835,
      "è¯º": 3836,
      "æľµ": 3837,
      "èħ°": 3838,
      "çļĦä½ľçĶ¨": 3839,
      "åİ¨": 3840,
      "ä»°": 3841,
      "24": 3842,
      "å¾ĹåĪ°äºĨ": 3843,
      "æłĩçŃ¾": 3844,
      "æĪĲå°±": 3845,
      "æīĭæ®µ": 3846,
      "èĩ³åħ³": 3847,
      "åŃ©åŃĲçļĦ": 3848,
      "åĪĨæĪĲ": 3849,
      "æľĢå¥½çļĦ": 3850,
      "èĩªè¡Įè½¦": 3851,
      "æľīè¶£çļĦ": 3852,
      "ç¿°": 3853,
      "çĩ¥": 3854,
      "æĻºæħ§": 3855,
      "å·§åħĭåĬĽ": 3856,
      "æ¶ĪåĮĸ": 3857,
      "å¤ªç©º": 3858,
      "æĪĳä»¬åı¯ä»¥ä½¿çĶ¨": 3859,
      "ä¾ĽåºĶ": 3860,
      "ä¹Ļ": 3861,
      "éĵħç¬Ķ": 3862,
      "æĬ«": 3863,
      "ary": 3864,
      "ĊĠĠĠĠĠ": 3865,
      "çļĦçĿ": 3866,
      "åĴĮæĶ¯æĮģ": 3867,
      "çļĦç²¾": 3868,
      "çıł": 3869,
      "å¤ļæķ°": 3870,
      "å¯¸": 3871,
      "ä¸Ģå¤©": 3872,
      "å¼ķåıĳ": 3873,
      "éħĴåºĹ": 3874,
      "çļĦçĸ": 3875,
      "ç»´æĮģ": 3876,
      "¹é¥": 3877,
      "æľĢå¤§çļĦ": 3878,
      "ä½¿çĶ¨çļĦ": 3879,
      "¹é¥ª": 3880,
      "åıĺå¾ĹæĽ´åĬł": 3881,
      "çĿĽ": 3882,
      "è¿Ľå±ķ": 3883,
      "ä»¿": 3884,
      "å¾Ģå¾Ģ": 3885,
      "andom": 3886,
      "åľŁå£¤": 3887,
      "éľĢè¦ģæ³¨æĦıçļĦæĺ¯": 3888,
      "çĶŁæ´»æĸ¹å¼ı": 3889,
      "æķ¢": 3890,
      "çļĦæĥħåĨµä¸ĭ": 3891,
      "å£®": 3892,
      "çĶ·æĢ§": 3893,
      "Ġå¦Ĥæŀľ": 3894,
      "æ¢¦æĥ³": 3895,
      "ĠåĴĮ": 3896,
      "çĶĺ": 3897,
      "è¿Ļä¸¤ä¸ª": 3898,
      "èĩªä¸»": 3899,
      "ç¢İ": 3900,
      "å®¶éķ¿": 3901,
      "åħ±äº«": 3902,
      "è´´": 3903,
      "are": 3904,
      "çī¹èī²": 3905,
      "æ³Į": 3906,
      "èĸĦ": 3907,
      "è¿Ĳç®Ĺ": 3908,
      "è§ĦèĮĥ": 3909,
      "éĩįçĤ¹": 3910,
      "name": 3911,
      "åĲĲ": 3912,
      "ant": 3913,
      "å©´": 3914,
      "åĴĮå®īåħ¨": 3915,
      "è¯ŃéŁ³è¯ĨåĪ«": 3916,
      "è¿ħ": 3917,
      "åĨľä¸ļ": 3918,
      "åłµ": 3919,
      "åĲĳéĩı": 3920,
      "åĹ¯": 3921,
      "ä¼ĺåħĪ": 3922,
      "åĨł": 3923,
      "åĪ©çĽĬ": 3924,
      "çº¦ç¿°": 3925,
      "åŃ¦çĶŁçļĦ": 3926,
      "ç³»ç»ŁçļĦ": 3927,
      "æ¯ķ": 3928,
      "æĦĪ": 3929,
      "ib": 3930,
      "æ¶īåıĬåĪ°": 3931,
      "è®¤çľŁ": 3932,
      "è£ħä¿®": 3933,
      "ãĢĤ\"": 3934,
      "åĨįçĶŁ": 3935,
      "Ġcom": 3936,
      "æĴ°": 3937,
      "æĢ§åĪ«": 3938,
      "åħ¶ä¸ŃçļĦ": 3939,
      "åı¯ä»¥çĶ¨äºİ": 3940,
      "çļĦäº§åĵģ": 3941,
      "ä¼¸": 3942,
      "æľīä¸ĢäºĽ": 3943,
      "ä¸ªæľĪ": 3944,
      "ly": 3945,
      "å½¼æŃ¤": 3946,
      "åĲ¸æĶ¶": 3947,
      "èº«ä»½": 3948,
      "æ¶Ĥ": 3949,
      "çļĦåİĨåı²": 3950,
      "å¸¸çĶ¨çļĦ": 3951,
      "èĴ¸": 3952,
      "è¿Ļåı¥è¯Ŀ": 3953,
      "å¯¹çİ¯å¢ĥ": 3954,
      "äººæ°ĳ": 3955,
      "æĺ¯ä¸ŃåĽ½": 3956,
      "ä¿¡åı·": 3957,
      "å·Ŀ": 3958,
      "],": 3959,
      "so": 3960,
      "çļĦç»ĵæŀľ": 3961,
      "æĹ¨åľ¨": 3962,
      "åĮ»çĸĹä¿Ŀåģ¥": 3963,
      "è¹Ī": 3964,
      "80": 3965,
      "èģĬå¤©": 3966,
      "æĳ©": 3967,
      "åĨ¥": 3968,
      "å¿ĥåĴĮ": 3969,
      "çĶµæ±ł": 3970,
      "äººä»¬çļĦ": 3971,
      "å±ħæ°ĳ": 3972,
      "éĿŀå¸¸æĦŁè°¢": 3973,
      "åı¯ä»¥èĢĥèĻĳ": 3974,
      "AP": 3975,
      "«çĹ«": 3976,
      "ä»¥ä¸ĭæĺ¯ä¸Ģä¸ª": 3977,
      "ä»ĸä»¬ä¹ĭéĹ´çļĦ": 3978,
      "çĵľ": 3979,
      "ä½ĵèĤ²": 3980,
      "åħ¨çĲĥåıĺæļĸ": 3981,
      "çĽĳçĿ£": 3982,
      "é¼»": 3983,
      "äºĨè®¸å¤ļ": 3984,
      "é£ŀè¡Į": 3985,
      "ä¸ªæĢ§åĮĸ": 3986,
      "çº½": 3987,
      "çº¯": 3988,
      "æ¬²": 3989,
      "èį£": 3990,
      "çļĦç¼ĸ": 3991,
      "ie": 3992,
      "æłĩå¿Ĺ": 3993,
      "éĶĢåĶ®é¢Ŀ": 3994,
      "å¤§èĦĳ": 3995,
      "èĢĮæĺ¯": 3996,
      "æĪĸåħ¶ä»ĸ": 3997,
      "éģĵè·¯": 3998,
      "æĺ¯ä¸ĢåĲį": 3999,
      "é¢ĨåŁŁçļĦ": 4000,
      "éĢıæĺİ": 4001,
      "æ¯Ķä¾ĭ": 4002,
      "å¹³æĸ¹": 4003,
      "æ¾": 4004,
      "æī©å±ķ": 4005,
      "ive": 4006,
      "æĽ´å¥½åľ°äºĨè§£": 4007,
      "numbers": 4008,
      "èĪŀè¹Ī": 4009,
      "æĺİçĻ½": 4010,
      "åĪĨæŀĲåĴĮ": 4011,
      "åĳ¨æľŁ": 4012,
      "äº¡": 4013,
      "çĽĨ": 4014,
      "ard": 4015,
      "è¡¨è¾¾å¼ı": 4016,
      "åİŁåĪĻ": 4017,
      "ç¯®": 4018,
      "å¤±åİ»": 4019,
      "æķ°çļĦ": 4020,
      "æĬ¤çĲĨ": 4021,
      "æĩĤ": 4022,
      "åħ¨éĿ¢": 4023,
      "è¯¦ç»ĨçļĦ": 4024,
      "çļĦéĢīæĭ©": 4025,
      "çĽĽ": 4026,
      "çī¹å®ļçļĦ": 4027,
      "æľīè®¸å¤ļ": 4028,
      "è¿Ļç§įæĥħåĨµ": 4029,
      "æĭĵ": 4030,
      "ä½łåľ¨": 4031,
      "åį³ä½¿": 4032,
      "åĬłå¯Ĩ": 4033,
      "å¤§åŀĭ": 4034,
      "ç§įæ¤į": 4035,
      "æ®ĸ": 4036,
      "è´¨éĩıåĴĮ": 4037,
      "ä¸ĬéĿ¢": 4038,
      "ç¬¬ä¸Ģä¸ª": 4039,
      "åı¯èĥ½å¯¼èĩ´": 4040,
      "çł´åĿı": 4041,
      "æ³¨æĦıåĬĽ": 4042,
      "Ġk": 4043,
      "èĤ¿çĺ¤": 4044,
      "ä¼ļå¯¼èĩ´": 4045,
      "åĨħå¿ĥ": 4046,
      "2022": 4047,
      "å¦Ĥä½ķåľ¨": 4048,
      "----": 4049,
      "èĭ±æĸĩ": 4050,
      "Ġelse": 4051,
      "æ¡ĥ": 4052,
      "æŁ¥çľĭ": 4053,
      "èĳ¡": 4054,
      "å¦Ļ": 4055,
      "Ġä½łå¥½": 4056,
      "çļĦæķ°éĩı": 4057,
      "æĬĢèĥ½åĴĮ": 4058,
      "è¿ĲçĶ¨": 4059,
      "éĿ¢åĮħ": 4060,
      "ä½ĵéĩį": 4061,
      "èħĲ": 4062,
      "æįķ": 4063,
      "çģ¾å®³": 4064,
      "æķ´ä½ĵ": 4065,
      "æ³ķè§Ħ": 4066,
      "äººä½ĵ": 4067,
      "åīįåĪĹ": 4068,
      "èĦ¾": 4069,
      "æĭĽèģĺ": 4070,
      "èĥĢ": 4071,
      "åĪ©æ¶¦": 4072,
      "å¹¶å°Ĩåħ¶": 4073,
      "æķ°æį®åºĵ": 4074,
      "çļĦåĨħå®¹": 4075,
      "éĢĴå½Ĵ": 4076,
      "ç´«": 4077,
      "å°±ä¸ļ": 4078,
      "åŁºäºİä»¥ä¸ĭ": 4079,
      "èĲĦ": 4080,
      "è¿Ļéĥ¨çĶµå½±": 4081,
      "æīĵå¼Ģ": 4082,
      "ç»ĻäºĪ": 4083,
      "å°½å¿«": 4084,
      "åĢĭ": 4085,
      "è¡¨çİ°åĩº": 4086,
      "èĳ¡èĲĦ": 4087,
      "çļĦçĿ¡": 4088,
      "æĪ·å¤ĸ": 4089,
      "å¸¸å¸¸": 4090,
      "æł¹æį®ä»¥ä¸ĭ": 4091,
      "æ¬£èµı": 4092,
      "å£ģ": 4093,
      "åĲĮäºĭ": 4094,
      "å¿ĥèĦı": 4095,
      "=\"": 4096,
      "éĻ·": 4097,
      "SS": 4098,
      "åĹ½": 4099,
      "çļĦæĸĩæľ¬": 4100,
      "çĪ¸": 4101,
      "çļĦç¤¾ä¼ļ": 4102,
      "æ¯«": 4103,
      "è¿Ŀ": 4104,
      "æĪĲç»©": 4105,
      "æī©å¤§": 4106,
      "åħ¬å¼ı": 4107,
      "æįŁå¤±": 4108,
      "çļĦçŁ": 4109,
      "å¼ºçĥĪ": 4110,
      "æľįçĶ¨": 4111,
      "åıªè¦ģ": 4112,
      "éĴ¢": 4113,
      "éĻĨ": 4114,
      "åľ£": 4115,
      "ä¸´åºĬ": 4116,
      "æľ¬æĸĩ": 4117,
      "åĴ³åĹ½": 4118,
      "äººå·¥æĻºèĥ½çļĦ": 4119,
      "è¡£æľį": 4120,
      "æħ¢æħ¢": 4121,
      "æĤ¦": 4122,
      "èĢĮè¨Ģ": 4123,
      "è£Ĥ": 4124,
      "èĩªåĬ¨é©¾é©¶": 4125,
      "çĪ¶æ¯į": 4126,
      "æĢİä¹ĪåĬŀ": 4127,
      "åĬŀåħ¬": 4128,
      "æ¶ĪèĢĹ": 4129,
      "çĻ«çĹ«": 4130,
      "çī©çĲĨåŃ¦": 4131,
      "å¾Īå¤§çļĦ": 4132,
      "çļĦè®¾è®¡": 4133,
      "ä¸įéľĢè¦ģ": 4134,
      "çļĦç±": 4135,
      "åĽŀæĶ¶": 4136,
      "åĨĮ": 4137,
      "çŁ¥åĲį": 4138,
      "éĽ·": 4139,
      "åľ¨æľªæĿ¥": 4140,
      "æķ°æį®åĴĮ": 4141,
      "ĠO": 4142,
      "ure": 4143,
      "å°¤åħ¶æĺ¯": 4144,
      "ä¸ĭéĿ¢æĺ¯": 4145,
      "å¦ĤæŃ¤": 4146,
      "æĥ³è±¡": 4147,
      "çĴ": 4148,
      "æĸ°åŀĭ": 4149,
      "å°ıæĿİ": 4150,
      "åº·å¤į": 4151,
      "ä¹ŁéľĢè¦ģ": 4152,
      "æĽ´å¥½åľ°çĲĨè§£": 4153,
      "ä¸ºä¸»": 4154,
      "ä¸įæĸŃåľ°": 4155,
      "åħ±æľī": 4156,
      "æĺ¨": 4157,
      "åĴĮæ²»çĸĹ": 4158,
      "åı¯ä»¥ä¸º": 4159,
      "åīįåĪĹèħº": 4160,
      "çŃīéĹ®é¢ĺ": 4161,
      "çŁŃè¯Ń": 4162,
      "åı¯ä»¥å¸®åĬ©æĪĳä»¬": 4163,
      "åİŁå§ĭ": 4164,
      "åįıè°ĥ": 4165,
      "åĢį": 4166,
      "dd": 4167,
      "é»İ": 4168,
      "Ġnew": 4169,
      "ç»ķ": 4170,
      "åıĺæĪĲ": 4171,
      "å¿ł": 4172,
      "çļĦçĬ": 4173,
      "æµĭéĩı": 4174,
      "åı¯èĥ½ä¼ļå¯¼èĩ´": 4175,
      "æ¨¡åĿĹ": 4176,
      "çī©ç§į": 4177,
      "åİĺ": 4178,
      "æľīæĹ¶": 4179,
      "åĢº": 4180,
      "ç¬¦åı·": 4181,
      "èĭ±åĽ½": 4182,
      "çļĦçĿ¡çľł": 4183,
      "ä¸Ģå®ļè¦ģ": 4184,
      "æ°´åĪĨ": 4185,
      "èº«å¿ĥ": 4186,
      "çī©çļĦ": 4187,
      "éģµå®Ī": 4188,
      "Ġhe": 4189,
      "è¢«è®¤ä¸º": 4190,
      "åĨ¥æĥ³": 4191,
      "æĪ¿å±ĭ": 4192,
      "åĴĮæĮĳæĪĺ": 4193,
      "åĴĮè°": 4194,
      "ace": 4195,
      "åį§": 4196,
      "å§ĵ": 4197,
      "ç»Ļä½łä¸¤ä¸ª": 4198,
      "å®ĥæĺ¯": 4199,
      "ä¼¤å®³": 4200,
      "æıĲä¾Ľä¸ĢäºĽ": 4201,
      "æĶ¯æĮģåĴĮ": 4202,
      "éģµå¾ª": 4203,
      "æī¾åĩº": 4204,
      "åĲįè¯į": 4205,
      "åĲ¦åĪĻ": 4206,
      "èľĤ": 4207,
      "å®ĮæĪĲä¸Ģæ®µå¯¹è¯Ŀ": 4208,
      "æ¸©å®¤": 4209,
      "åīįæĻ¯": 4210,
      "è§Ĵèī²ä¿¡æģ¯å®ĮæĪĲä¸Ģæ®µå¯¹è¯Ŀ": 4211,
      "åŁºäºİä»¥ä¸ĭè§Ĵèī²ä¿¡æģ¯å®ĮæĪĲä¸Ģæ®µå¯¹è¯Ŀ": 4212,
      "åĵªä¸ª": 4213,
      "éĢĥ": 4214,
      "ä¸»äºº": 4215,
      "åıĸåĨ³": 4216,
      "æ¥ļ": 4217,
      "æģĭ": 4218,
      "Ġrange": 4219,
      "ä¸įå¤ª": 4220,
      "åıĸåĨ³äºİ": 4221,
      "æ°Ķæ¸©": 4222,
      "èĤ¯": 4223,
      "ä¼łç»ŁçļĦ": 4224,
      "çĤ¸": 4225,
      "è¯ĹæŃĮ": 4226,
      "çĶŁæĪĲä»ĸä»¬ä¹ĭéĹ´çļĦ": 4227,
      "è¯¦ç»Ĩä¸°å¯Į": 4228,
      "è¦ģæ±Ĥå¯¹è¯ĿåĨħå®¹": 4229,
      "è§Ĵèī²ä¿¡æģ¯å¦Ĥä¸ĭ": 4230,
      "ç»Ļä½łä¸¤ä¸ªè§Ĵèī²ä¿¡æģ¯å¦Ĥä¸ĭ": 4231,
      "çĶŁæĪĲä»ĸä»¬ä¹ĭéĹ´çļĦä¸Ģæ®µå¯¹è¯Ŀ": 4232,
      "çĶŁæĪĲä¸Ģæ®µä»ĸä»¬çļĦå¯¹è¯ĿåĨħå®¹": 4233,
      "è¦ģæ±Ĥå¯¹è¯ĿåĨħå®¹è¯¦ç»Ĩä¸°å¯Į": 4234,
      "éĽĦ": 4235,
      "æĸĩæ¡£": 4236,
      "æĹ©æľŁ": 4237,
      "çļĦä¸Ģç§į": 4238,
      "æ³°": 4239,
      "éĿŀå¸¸æľī": 4240,
      "æ¸ħæ´Ĺ": 4241,
      "èģĮåľº": 4242,
      "äº§çĶŁäºĨ": 4243,
      "èģĮä½į": 4244,
      "ä¸ģ": 4245,
      "ä¹¡": 4246,
      "ill": 4247,
      "åĴĮåĪĨæŀĲ": 4248,
      "åģļå¥½": 4249,
      "ä¹ĭå¤Ħ": 4250,
      "æ¸ħåįķ": 4251,
      "è´ŁéĿ¢å½±åĵį": 4252,
      "Ġex": 4253,
      "çĪĨ": 4254,
      "è¿ª": 4255,
      "çŃīå¾ħ": 4256,
      "åĪĩæĪĲ": 4257,
      "åĬ¨æĢģ": 4258,
      "ä¼Ļ": 4259,
      "çģ°": 4260,
      "å®ĮåĸĦ": 4261,
      "å¾Īå¥½çļĦ": 4262,
      "ä¸ªç³ĸæŀľ": 4263,
      "Ġare": 4264,
      "éĹ²": 4265,
      "å®ŀæĹ¶": 4266,
      "éľĢæ±ĤåĴĮ": 4267,
      "ä»¥åħį": 4268,
      "å¾Īé«ĺåħ´": 4269,
      "to": 4270,
      "åħīçº¿": 4271,
      "åĪł": 4272,
      "çļĦäºĭæĥħ": 4273,
      "å°ıæĺİæľī": 4274,
      "å¤ªéĺ³èĥ½": 4275,
      "éĩĬæĶ¾": 4276,
      "è£¤": 4277,
      "ize": 4278,
      "ä½ĨæĪĳ": 4279,
      "æĬµ": 4280,
      "ç¾Ĭ": 4281,
      "æİ¥è§¦": 4282,
      "è¶³çĲĥ": 4283,
      "æĦ¿æĦı": 4284,
      "90": 4285,
      "æŃ§è§Ĩ": 4286,
      "æĽ´å¿«": 4287,
      "çļĦåıĺåĮĸ": 4288,
      "çķªèĮĦ": 4289,
      "åºĨ": 4290,
      "è¿ĩäºİ": 4291,
      "ç£ģ": 4292,
      "ä¼ĺæĥł": 4293,
      "çļĦèĥ½åĬĽ": 4294,
      "çļĦåģ¥åº·": 4295,
      "ç¾İå¥½çļĦ": 4296,
      "Ġor": 4297,
      "æĸ¹ç¨ĭ": 4298,
      "æ´Ľ": 4299,
      "æľŁå¾ħ": 4300,
      "é¼ł": 4301,
      "å¯¹çĹĩ": 4302,
      "åıįæĺł": 4303,
      "ello": 4304,
      "å®ļä½į": 4305,
      "æĢ§è´¨": 4306,
      "åī²": 4307,
      "æĤī": 4308,
      "èį·": 4309,
      "çļĦç¤¾äº¤": 4310,
      "åĽŀå½Ĵ": 4311,
      "æŃ£åĪĻ": 4312,
      "é»Ħèī²": 4313,
      "éķ¿çļĦ": 4314,
      "result": 4315,
      "åįķä½į": 4316,
      "åľĪ": 4317,
      "æĦŁåĴĮ": 4318,
      "Ch": 4319,
      "çŁ©": 4320,
      "Ġan": 4321,
      "æ¡Ĩæŀ¶": 4322,
      "ä¸¥æł¼": 4323,
      "æħ¢æĢ§": 4324,
      "è·ĳæŃ¥": 4325,
      "å¼ºå¤§çļĦ": 4326,
      "æľĢæĸ°": 4327,
      "ath": 4328,
      "åıªèĥ½": 4329,
      "æĳĨ": 4330,
      "æķ°åĪĹ": 4331,
      "åħ¬éĩĮ": 4332,
      "æıĲä¾Ľä¸Ģä¸ª": 4333,
      "åŃ¤çĭ¬": 4334,
      "æĸĩæľ¬ä¸ŃçļĦ": 4335,
      "åı£æľį": 4336,
      "æľºåĻ¨åŃ¦ä¹łç®Ĺæ³ķ": 4337,
      "å¾ĹäºĨ": 4338,
      "å¤ıåŃ£": 4339,
      "æĦīå¿«": 4340,
      "æ¸ħçĥŃ": 4341,
      "åĢĴåħ¥": 4342,
      "ere": 4343,
      "åħģ": 4344,
      "æī®": 4345,
      "åĪ°è¾¾": 4346,
      "æĪ´": 4347,
      "å¹³çŃī": 4348,
      "çĬ¬": 4349,
      "ç¾¤ä½ĵ": 4350,
      "æĻ®éĢļ": 4351,
      "åľ¨è¿Ļ": 4352,
      "æĦŁåĨĴ": 4353,
      "åįļçī©": 4354,
      "æİĺ": 4355,
      "å®ŀçĶ¨": 4356,
      "æĬķåħ¥": 4357,
      "æĪĳä»¬ä½¿çĶ¨": 4358,
      "å¤©çļĦ": 4359,
      "çļĦç±»": 4360,
      "ä¸Ĭä¸ĭ": 4361,
      "åı¯ä»¥çĶ¨": 4362,
      "æĪĲæŀľ": 4363,
      "èĬĤå¥ı": 4364,
      "è¾ħåĬ©": 4365,
      "èµĦäº§": 4366,
      "çĽ¾": 4367,
      "45": 4368,
      "åĲ«ä¹ī": 4369,
      "åıī": 4370,
      "//": 4371,
      "row": 4372,
      "åħĭæľį": 4373,
      "æĸĩæ¡Ī": 4374,
      "que": 4375,
      "ä½łæĺ¯": 4376,
      "ä¼¦çĲĨ": 4377,
      "åĵģç§į": 4378,
      "è®©ä½ł": 4379,
      "åįıè®®": 4380,
      "éŃĶæ³ķ": 4381,
      "å½ĵæĹ¶": 4382,
      "In": 4383,
      "è¿ĻæĦıåĳ³çĿĢ": 4384,
      "æ¸¸å®¢": 4385,
      "èĥ¶": 4386,
      "æĹ§": 4387,
      "ä¹Łå¾Ī": 4388,
      "æ¯ıä¸ªäººéĥ½": 4389,
      "å¦Ĩ": 4390,
      "é¡µéĿ¢": 4391,
      "ial": 4392,
      "è¿ħéĢŁ": 4393,
      "åĩĨç¡®æĢ§": 4394,
      "æĪĳæľĢè¿ĳ": 4395,
      "äººå£«": 4396,
      "ä¸»è¦ģæĺ¯": 4397,
      "æĹ©ä¸Ĭ": 4398,
      "è¯¥åĩ½æķ°": 4399,
      "ep": 4400,
      "å¤ļåĲĥ": 4401,
      "çļĦæĢ»": 4402,
      "åĲī": 4403,
      "add": 4404,
      "éľĢè¦ģæł¹æį®": 4405,
      "æł·æľ¬": 4406,
      "æŃ£éĿ¢": 4407,
      "æ©ĻåŃĲ": 4408,
      "ç§Ĵ": 4409,
      "è¾Ľè¾£": 4410,
      "unction": 4411,
      "çŃīåĽłç´ł": 4412,
      "é¢ĳçİĩ": 4413,
      "åĴĮå»ºè®®": 4414,
      "æģ©": 4415,
      "åīįå¾Ģ": 4416,
      "å¾Ĺåĩº": 4417,
      "æ¡¥": 4418,
      "æĢ§æł¼": 4419,
      "è°ĥåĳ³": 4420,
      "èķī": 4421,
      "çĥ¹é¥ª": 4422,
      "å¸ĤåľºèĲ¥éĶĢ": 4423,
      "å¹²æī°": 4424,
      "èİĵ": 4425,
      "åĴĮç®¡çĲĨ": 4426,
      "è½¨": 4427,
      "çĤİçĹĩ": 4428,
      "Ġ12": 4429,
      "è¡¥åħħ": 4430,
      "å¹¶è¿ĶåĽŀ": 4431,
      "æ¼Ķåĳĺ": 4432,
      "è¯Ńåı¥": 4433,
      "ff": 4434,
      "æĽ´ä¸º": 4435,
      "è¿ĺè¦ģ": 4436,
      "Ġlo": 4437,
      "ï¼īãĢģ": 4438,
      "ç¼ĸç¨ĭè¯Ńè¨Ģ": 4439,
      "è¿Ļæ¬¾": 4440,
      "æ¡Īä¾ĭ": 4441,
      "åı¯ä»¥è¢«": 4442,
      "èİī": 4443,
      "orld": 4444,
      "æŀĿ": 4445,
      "ä»ĸåľ¨": 4446,
      "è¯·æ±Ĥ": 4447,
      "èĵĿèī²": 4448,
      "ä½łå¯¹": 4449,
      "åħ¬ä¼Ĺ": 4450,
      "çĶ³è¯·": 4451,
      "å¹¶ä¸º": 4452,
      "å¤§å¤ļæķ°": 4453,
      "ä¿®å¤į": 4454,
      "èµ¢": 4455,
      "ak": 4456,
      "åĨĴéĻ©": 4457,
      "len": 4458,
      "æĵ¦": 4459,
      "åĶ¯": 4460,
      "The": 4461,
      "èĥ½åĲ¦": 4462,
      "è®¾å®ļ": 4463,
      "åľºæīĢ": 4464,
      "çķĻä¸ĭ": 4465,
      "çļĦè¿ĩç¨ĭä¸Ń": 4466,
      "çº¹": 4467,
      "æĬ«èĲ¨": 4468,
      "åĪ·": 4469,
      "è¦ĨçĽĸ": 4470,
      "çļĦè¡Įä¸º": 4471,
      "å¤±è´¥": 4472,
      "self": 4473,
      "éĢīæĭ©éĢĤåĲĪ": 4474,
      "ang": 4475,
      "èİ«": 4476,
      "æ¿ĢåĬ±": 4477,
      "åīĳ": 4478,
      "åıĹä¼Ĺ": 4479,
      "åºĶå½ĵ": 4480,
      "åĪĹè¡¨ä¸Ń": 4481,
      "éĢīæĭ©åĲĪéĢĤçļĦ": 4482,
      "é¦Ļèķī": 4483,
      "çĽĴ": 4484,
      "ä¸ĸçķĮä¸ĬæľĢ": 4485,
      "åĬłéĢŁ": 4486,
      "å®ģ": 4487,
      "able": 4488,
      "çĽĳç®¡": 4489,
      "åĪłéĻ¤": 4490,
      "ä¾¿åĪ©": 4491,
      "ç£¨": 4492,
      "è¿Ļæ®µæĸĩæľ¬": 4493,
      "çĽ®çļĦåľ°": 4494,
      "æ°ı": 4495,
      "Ġæĺ¯çļĦ": 4496,
      "ä¸įéĢĤ": 4497,
      "ook": 4498,
      "çļĦæĸ°": 4499,
      "çº½çº¦": 4500,
      "ear": 4501,
      "æľĢå°ı": 4502,
      "å²©": 4503,
      "ä¸įä»ħä»ħ": 4504,
      "å¤§çº¦": 4505,
      "å¼ķåĬĽ": 4506,
      "æ»´": 4507,
      "å°ıåŃ¦": 4508,
      "åħģè®¸": 4509,
      "ä¸Ĭæµ·": 4510,
      "æ¦Ĥçİĩ": 4511,
      "ĠâĢľ": 4512,
      "åĬ©æīĭ": 4513,
      "Ġimport": 4514,
      "åħ¬æŃ£": 4515,
      "æŁ¥è¯¢": 4516,
      "åĴĮåºĶçĶ¨": 4517,
      "å©ļç¤¼": 4518,
      "æĽ´æľī": 4519,
      "ä»¥æıĲé«ĺ": 4520,
      "æİ¨åĩº": 4521,
      "æİĴåĪĹ": 4522,
      "æĽ¿æį¢": 4523,
      "èıľåĵģ": 4524,
      "åı¯åĨįçĶŁ": 4525,
      "ä¼ĺç§ĢçļĦ": 4526,
      "çĪ±çļĦ": 4527,
      "æ³ķåĽ½": 4528,
      "åıĳæĺİ": 4529,
      "å·´é»İ": 4530,
      "input": 4531,
      "æķ°æį®è¿Ľè¡Į": 4532,
      "åķĨåĬ¡": 4533,
      "åı¦ä¸Ģ": 4534,
      "æĪĳè§īå¾Ĺ": 4535,
      "ave": 4536,
      "å¹¶ä½¿çĶ¨": 4537,
      "åħ¶å®ŀ": 4538,
      "åŃ¦èĢħ": 4539,
      "åĵªéĩĮ": 4540,
      "åŃĲå®«": 4541,
      "æĶ¶çĽĬ": 4542,
      "åĵº": 4543,
      "çķĻæĦı": 4544,
      "çļĦç¨ĭ": 4545,
      "ä¸Ģç³»åĪĹ": 4546,
      "])": 4547,
      "å¿ĥçĲĨåģ¥åº·": 4548,
      "æ±¤å§Ĩ": 4549,
      "æĺŁæľŁ": 4550,
      "Ġli": 4551,
      "âĢ¦âĢ¦": 4552,
      "æĿİåĽĽ": 4553,
      "å©´åĦ¿": 4554,
      "æĹ¶åĪ»": 4555,
      "å¥ĸåĬ±": 4556,
      "åĴĮæĬĢæľ¯": 4557,
      "çĽĳæİ§": 4558,
      "æŀĦæĪĲ": 4559,
      "åħ¬åħ±äº¤éĢļ": 4560,
      "ä¸ĵä¸ļçļĦ": 4561,
      "å¤©ç©º": 4562,
      "çĶ°": 4563,
      "æ¡Īä»¶": 4564,
      "åįļçī©é¦Ĩ": 4565,
      "è´·": 4566,
      "Ġcan": 4567,
      "å®¶çļĦ": 4568,
      "è¢«ç§°ä¸º": 4569,
      "çĥ¦": 4570,
      "æĿ¥è®¡ç®Ĺ": 4571,
      "çłĶåıĳ": 4572,
      "å·¥èīº": 4573,
      "è´«": 4574,
      "æķ°ä¸º": 4575,
      "å½»": 4576,
      "çļĦä¸ĢäºĽ": 4577,
      "åĮĻ": 4578,
      "odel": 4579,
      "éĹª": 4580,
      "æ¶Īæģ¯": 4581,
      "ä½ĵç³»": 4582,
      "å¹¶æ²¡æľī": 4583,
      "`ï¼Į": 4584,
      "ust": 4585,
      "ç¦»å¼Ģ": 4586,
      "å¤ĸè§Ĥ": 4587,
      "å®īåħ¨æĢ§": 4588,
      "äººåı£": 4589,
      "åĪĨæ³Į": 4590,
      "å¿§": 4591,
      "sort": 4592,
      "éĤ£éĩĮ": 4593,
      "éī": 4594,
      "ight": 4595,
      "éģĹä¼ł": 4596,
      "åĴĮè°Ĳ": 4597,
      "åĩºè¡Į": 4598,
      "right": 4599,
      "å¦»": 4600,
      "æĵİ": 4601,
      "çģŃ": 4602,
      "ens": 4603,
      "æľīæľº": 4604,
      "æĹ¦": 4605,
      "èĲĿ": 4606,
      "å±ŀæĢ§": 4607,
      "å¹´è½»äºº": 4608,
      "çŁ¿": 4609,
      "èĤ´": 4610,
      "æº¶": 4611,
      "å¥³åŃ©": 4612,
      "çļĦä½įç½®": 4613,
      "ator": 4614,
      "æİªæĸ½æĿ¥": 4615,
      "æ½ľåĬĽ": 4616,
      "Ġnot": 4617,
      "çĪ¬": 4618,
      "Ġlen": 4619,
      "äºĭçī©": 4620,
      "æĢİæł·": 4621,
      "éī´": 4622,
      "æķıæĦŁ": 4623,
      "ĽçĽ¾": 4624,
      "è·ĥ": 4625,
      "èĬ±è´¹": 4626,
      "åĶĲ": 4627,
      "è®¡ç®Ĺæľºç§ĳåŃ¦": 4628,
      "æ¼Ķè®²": 4629,
      "æĽ¿ä»£": 4630,
      "çļĦä¸Ģéĥ¨åĪĨ": 4631,
      "å¼ķæĵİ": 4632,
      "æĤ£èĢħçļĦ": 4633,
      "æķĻå¸Ī": 4634,
      "é©±": 4635,
      "æĻ®åıĬ": 4636,
      "æĺ¾èĳĹ": 4637,
      "Ġè¿Ļ": 4638,
      "é«ĺçº§": 4639,
      "ç´§æĢ¥": 4640,
      "99": 4641,
      "è©": 4642,
      "æľīæĹ¶åĢĻ": 4643,
      "åı¯è¡Į": 4644,
      "ç¢Ĺ": 4645,
      "form": 4646,
      "éĺ´éģĵ": 4647,
      "åĩĿ": 4648,
      "ä¼ĺè´¨": 4649,
      "ast": 4650,
      "å±ıå¹ķ": 4651,
      "åĪļåĪļ": 4652,
      "æīĢåľ¨": 4653,
      "æĻºèĥ½åĮĸ": 4654,
      "å¥½äºĨ": 4655,
      "éĤ£ä¸ª": 4656,
      "æĽ´æį¢": 4657,
      "ä»¥ä¸Ĭæĺ¯": 4658,
      "åĸľå¥½": 4659,
      "æĵħ": 4660,
      "å¹²åĩĢ": 4661,
      "Lucy": 4662,
      "ä»ģ": 4663,
      "atch": 4664,
      "äººåĲį": 4665,
      "æ²¿": 4666,
      "å¸Ŀ": 4667,
      "çļĦçľĭ": 4668,
      "ĠThe": 4669,
      "åľ°çĲĥçļĦ": 4670,
      "æ¸ħæ·¡": 4671,
      "æĬķèµĦèĢħ": 4672,
      "éľĢè¦ģè¿Ľè¡Į": 4673,
      "çļĦçī¹çĤ¹": 4674,
      "æĿ¥çľĭ": 4675,
      "è¿Ľè¡ĮäºĨ": 4676,
      "æĪĺäºī": 4677,
      "çļĦçľŁ": 4678,
      "åłĨ": 4679,
      "éĢļå¸¸æĺ¯": 4680,
      "Ġme": 4681,
      "åĲĮæł·": 4682,
      "éľĢè¦ģåľ¨": 4683,
      "åĬłä¸Ĭ": 4684,
      "äº§ä¸ļ": 4685,
      "åĲĮåŃ¦": 4686,
      "çŃĽ": 4687,
      "åŁĥ": 4688,
      "åĵºä¹³": 4689,
      "æľ¬èº«": 4690,
      "ç®ĢçŁŃ": 4691,
      "Ġpl": 4692,
      "åıĸåĩº": 4693,
      "ä¼ļå¯¹": 4694,
      "äººéĻħåħ³ç³»": 4695,
      "çĲĨå¿µ": 4696,
      "åŁİå¸ĤçļĦ": 4697,
      "çļĦç¥ŀ": 4698,
      "çļĦç´": 4699,
      "å¹´æĿ¥": 4700,
      "è§Ĩä¸º": 4701,
      "æª": 4702,
      "æµ·æ»©": 4703,
      "éĩĳå±ŀ": 4704,
      "çļĦçĬ¶": 4705,
      "èµĦæĸĻ": 4706,
      "åĮĸåĲĪ": 4707,
      "æ¬§æ´²": 4708,
      "Ġå¥½çļĦ": 4709,
      "æĤ²": 4710,
      "æĢª": 4711,
      "åĴĮä¸į": 4712,
      "ry": 4713,
      "èĬĿ": 4714,
      "å¼Ł": 4715,
      "æĿ¥æıĲé«ĺ": 4716,
      "æłĩè®°": 4717,
      "èĢĥè¯ķ": 4718,
      "åĬŁæķĪ": 4719,
      "å¥ĳ": 4720,
      "red": 4721,
      "èģª": 4722,
      "åĪĨç»Ļ": 4723,
      "St": 4724,
      "éĶģ": 4725,
      "\":": 4726,
      "çļĦç¼ĸç¨ĭ": 4727,
      "æĮĩåĩº": 4728,
      "ä¸Ģé¡¹": 4729,
      "çº·": 4730,
      "time": 4731,
      "å¤´çĹĽ": 4732,
      "æľīéĻĲ": 4733,
      "å§»": 4734,
      "æīĢéľĢçļĦ": 4735,
      "ä»£è°¢": 4736,
      "Ġè¾ĵåĩº": 4737,
      "èĤ¢": 4738,
      "è¢«åĳĬ": 4739,
      "æĺŁçĲĥ": 4740,
      "think": 4741,
      "ä¼¼ä¹İ": 4742,
      "äºĶä¸ª": 4743,
      "ä¼¯": 4744,
      "éĺĲ": 4745,
      "å¿ĥçĲĨåŃ¦": 4746,
      "çĸ«èĭĹ": 4747,
      "ä¹Ŀ": 4748,
      "Script": 4749,
      "æī¬": 4750,
      "å®¢æĪ·çļĦ": 4751,
      "è²Į": 4752,
      "çļĦéŁ³ä¹Ĳ": 4753,
      "og": 4754,
      "æī£": 4755,
      "éĩįéĩı": 4756,
      "å¾ĭå¸Ī": 4757,
      "åı¯ä»¥æıĲä¾Ľ": 4758,
      "Ġwe": 4759,
      "æī®æ¼Ķ": 4760,
      "é¸£": 4761,
      "ï¼ģâĢĿ": 4762,
      "æ·±è¿ľ": 4763,
      "ä¼ļå½±åĵį": 4764,
      "åĪ°çļĦ": 4765,
      "å¤ļæł·æĢ§": 4766,
      "è®¾è®¡ä¸Ģä¸ª": 4767,
      "Ġ\\": 4768,
      "ä½ĵçİ°": 4769,
      "è·Łè¸ª": 4770,
      "å¼ķå¯¼": 4771,
      "åı¯èĥ½æĢ§": 4772,
      "date": 4773,
      "åĮºåĪ«": 4774,
      "å®ļåĪ¶": 4775,
      "ä¸Ģå¹´": 4776,
      "ä¸Ģèĩ´": 4777,
      "ä»¥åĲİ": 4778,
      "ĊĊĠĠĠ": 4779,
      "åľ¨è¿ĻéĩĮ": 4780,
      "éĢĻ": 4781,
      "è¿«": 4782,
      "ä¸ĢçĤ¹": 4783,
      "åħħæ»¡äºĨ": 4784,
      "å¹³åĿĩåĢ¼": 4785,
      "å©ļå§»": 4786,
      "æ¸ħæ¥ļ": 4787,
      "çªģåĩº": 4788,
      "çĮľ": 4789,
      "é«ĺè´¨éĩı": 4790,
      "æĪĳå¯¹": 4791,
      "çļĦæĦŁè§ī": 4792,
      "é¢ĨåŁŁä¸Ń": 4793,
      "çķĮéĿ¢": 4794,
      "Ġdef": 4795,
      "æĮĤ": 4796,
      "ä¸ĵæ³¨äºİ": 4797,
      "æĸĩç«łä¸Ń": 4798,
      "ä¼Ĭ": 4799,
      "Ġal": 4800,
      "ublic": 4801,
      "æļĤ": 4802,
      "ä¼łè¾¾": 4803,
      "çĶµåĻ¨": 4804,
      "çļĦçĶµå½±": 4805,
      "Ġword": 4806,
      "ä¸ĢçĽ´åľ¨": 4807,
      "ç®¡çĲĨåĴĮ": 4808,
      "è¢«å¹¿æ³Ľ": 4809,
      "çŃĶæ¡Īæĺ¯": 4810,
      "æĸĩæĺİ": 4811,
      "éĸ": 4812,
      "ä¿¡ä»°": 4813,
      "count": 4814,
      "çĶ¨æĪ·ä½ĵéªĮ": 4815,
      "åıĳéĢģ": 4816,
      "åħµ": 4817,
      "æ±Ĺ": 4818,
      "ä¸ĭåįĪ": 4819,
      "å¹´ä»£": 4820,
      "çļĩ": 4821,
      "å½ĵåľ°çļĦ": 4822,
      "çļĦé¢ľèī²": 4823,
      "å¹³éĿ¢": 4824,
      "ance": 4825,
      "çī¹åĪ«æĺ¯": 4826,
      "åŁºéĩĳ": 4827,
      "DNA": 4828,
      "éģŃ": 4829,
      "è§£æ¯Ĵ": 4830,
      "è¯Ŀé¢ĺ": 4831,
      "ip": 4832,
      "key": 4833,
      "Ġsh": 4834,
      "èĮĥåĽ´åĨħ": 4835,
      "çĸ²åĬ³": 4836,
      "åľºåĲĪ": 4837,
      "åĪ¸": 4838,
      "æ°§æ°Ķ": 4839,
      "å¸®åĬ©ä½ł": 4840,
      "JavaScript": 4841,
      "Ġ>": 4842,
      "çī¹æĢ§": 4843,
      "æĦŁæĥħ": 4844,
      "çĸ¾çĹħçļĦ": 4845,
      "å°¿çĹħ": 4846,
      "åĪĻæĺ¯": 4847,
      "æµªæ¼«": 4848,
      "ç»ıèĲ¥": 4849,
      "åıĻ": 4850,
      "åĩłç§į": 4851,
      "åŃĲåĴĮ": 4852,
      "äºĭä¸ļ": 4853,
      "åĬĽäºİ": 4854,
      "Ġæķ°æį®": 4855,
      "æ®ĭ": 4856,
      "çĲ´": 4857,
      "ç½ļ": 4858,
      "åĩºçĶŁ": 4859,
      "ach": 4860,
      "åŃ©åŃĲä»¬": 4861,
      "åĪĨç±»åĻ¨": 4862,
      "ä¸įå¥½": 4863,
      "ud": 4864,
      "æµģçķħ": 4865,
      "çĽĹ": 4866,
      "çĥĤ": 4867,
      "âĢĿãĢģ": 4868,
      "Ġby": 4869,
      "çļĦçľĭæ³ķ": 4870,
      "æľĢé«ĺ": 4871,
      "çĶŁæ´»çļĦ": 4872,
      "èıľåįķ": 4873,
      "ç¤¾ä¼ļçļĦ": 4874,
      "åĭĩæ°Ķ": 4875,
      "set": 4876,
      "ä¸ĭçļĦ": 4877,
      "èį¯çī©æ²»çĸĹ": 4878,
      "èħ»": 4879,
      "è¡¨è¾¾äºĨ": 4880,
      "åĴĮæķ°æį®": 4881,
      "èĪĴéĢĤçļĦ": 4882,
      "ç»ŃåĨĻ": 4883,
      "å®¾": 4884,
      "æĺ¯éĿŀå¸¸éĩįè¦ģçļĦ": 4885,
      "åİĺç±³": 4886,
      "ser": 4887,
      "åĲĪçĲĨçļĦ": 4888,
      "ä¸ªæĢ§åĮĸçļĦ": 4889,
      "from": 4890,
      "å½¢çļĦ": 4891,
      "å°Ĩä»¥ä¸ĭ": 4892,
      "ç»ıéªĮåĴĮ": 4893,
      "å¹¶ä¸įæĺ¯": 4894,
      "ç»ĨèıĮ": 4895,
      "ä¹Łå°±æĺ¯": 4896,
      "åł¡": 4897,
      "æĬĵ": 4898,
      "çĶ¨èį¯": 4899,
      "æĿ¥è§£åĨ³": 4900,
      "åģıå¥½": 4901,
      "çĬ¯ç½ª": 4902,
      "çĹ°": 4903,
      "ä¼ļæľī": 4904,
      "çļĦåĬŁèĥ½": 4905,
      "åį°è±¡": 4906,
      "èŀįåĲĪ": 4907,
      "éģĩåĪ°äºĨ": 4908,
      "æ¶µçĽĸ": 4909,
      "çļĦåĲĮæĹ¶": 4910,
      "æ¼Ĥ": 4911,
      "æŀģç«¯": 4912,
      "çħİ": 4913,
      "åĴĮæĹ¶éĹ´": 4914,
      "70": 4915,
      "åĵįåºĶ": 4916,
      "æģĴæĺŁ": 4917,
      "æ¿Ģåıĳ": 4918,
      "ost": 4919,
      "åĵģå°Ŀ": 4920,
      "è¾ĥé«ĺ": 4921,
      "ä¼Ł": 4922,
      "çĻ½èī²": 4923,
      "ç³ĸå°¿çĹħ": 4924,
      "ork": 4925,
      "ä¹ĭéĹ´çļĦåħ³ç³»": 4926,
      "èĢĥèĻĳåĪ°": 4927,
      "å®ĹæķĻ": 4928,
      "ç³Ĭ": 4929,
      "å§¿åĬ¿": 4930,
      "è±ª": 4931,
      "èģªæĺİ": 4932,
      "åı¯åĨįçĶŁèĥ½æºĲ": 4933,
      "äº¤æį¢": 4934,
      "ä¸ĢæĿ¡": 4935,
      "è¿ĲèĲ¥": 4936,
      "çĶµåĬ¨": 4937,
      "é²ģ": 4938,
      "Ġåĩ½æķ°": 4939,
      "è½¬åĮĸä¸º": 4940,
      "æ°¢": 4941,
      "æħİ": 4942,
      "èĩ´åĬĽäºİ": 4943,
      "ä»İèĢĮæıĲé«ĺ": 4944,
      "ide": 4945,
      "æĺ¯æĪĳä»¬": 4946,
      "ä¸įæĸŃåıĳå±ķ": 4947,
      "æŃĮè¯į": 4948,
      "æĪĺçķ¥": 4949,
      "æĽ´é«ĺçļĦ": 4950,
      "ies": 4951,
      "æĢĢåŃķ": 4952,
      "ä¸»è§Ĵ": 4953,
      "æ¦Ĥæĭ¬": 4954,
      "æĤ¬": 4955,
      "ä¸ŃæıĲåıĸåĩº": 4956,
      "çľ¼çĿĽ": 4957,
      "äºĮæ°§åĮĸ": 4958,
      "åĻª": 4959,
      "ç²¾åĬĽ": 4960,
      "æĪĳä»¬ä¼ļ": 4961,
      "çĤº": 4962,
      "è£ģ": 4963,
      "ä¸ĢæĹ¦": 4964,
      "è¯įè¯Ń": 4965,
      "è¿ĩæ»¤": 4966,
      "äºĭæķħ": 4967,
      "å¹²çĩ¥": 4968,
      "ç¼ĺ": 4969,
      "ç¬¬äºĮä¸ª": 4970,
      "å¤įæĿĤåº¦": 4971,
      "è¿Ļæ¬¡": 4972,
      "å±Ģéĥ¨": 4973,
      "æĸĲ": 4974,
      "alse": 4975,
      "æķĮ": 4976,
      "äºĨå¾Īå¤ļ": 4977,
      "çīĪæľ¬": 4978,
      "),": 4979,
      "è¯Ńè¨Ģæ¨¡åŀĭ": 4980,
      "èıľèĤ´": 4981,
      "éĢĨ": 4982,
      "æ»ĭ": 4983,
      "æĿİæĺİ": 4984,
      "åģ¥åº·é¥®é£Ł": 4985,
      "èĲ¥éĶĢçŃĸçķ¥": 4986,
      "è¿ĻäºĽéĹ®é¢ĺ": 4987,
      "ä¸Ģé¦ĸ": 4988,
      "çļĦä»·æł¼": 4989,
      "ara": 4990,
      "å¯ĮåĲ«": 4991,
      "ä»¥ä¸ĭåĩłä¸ªæĸ¹éĿ¢": 4992,
      "è·¯çº¿": 4993,
      "28": 4994,
      "æĳĩ": 4995,
      "åİĭåĬĽåĴĮ": 4996,
      "æĹģ": 4997,
      "åŃĶ": 4998,
      "ĠÃĹ": 4999,
      "å½¢å®¹": 5000,
      "éĻ¤ä»¥": 5001,
      "å¦Ĥæŀľæĺ¯": 5002,
      "pro": 5003,
      "éĻª": 5004,
      "å²ģçļĦ": 5005,
      "Ġmy": 5006,
      "åĪ¶åº¦": 5007,
      "sum": 5008,
      "();": 5009,
      "ä»Ĭå¹´": 5010,
      "çĽ¸æ¯Ķ": 5011,
      "ä½¿çĶ¨äºĨ": 5012,
      "åĴĮæĥħæĦŁ": 5013,
      "åĸ·": 5014,
      "ä¼Ļä¼´": 5015,
      "çļĦæľºä¼ļ": 5016,
      "æ¢°": 5017,
      "æĹ¥å¸¸çĶŁæ´»ä¸Ń": 5018,
      "åľ¨ä½¿çĶ¨": 5019,
      "åĴĮå·¥ä½ľ": 5020,
      "è¯·ä½ł": 5021,
      "æķ°åŃĹåĮĸ": 5022,
      "æĮ¯": 5023,
      "é½Ĳ": 5024,
      "âĢĿãĢģâĢľ": 5025,
      "åħĪè¿Ľ": 5026,
      "èµĭ": 5027,
      "çĽĪ": 5028,
      "çĮª": 5029,
      "ç»ĦæĪĲéĥ¨åĪĨ": 5030,
      "test": 5031,
      "æŃ£åĪĻè¡¨è¾¾å¼ı": 5032,
      "å¿łè¯ļ": 5033,
      "ç«ĭåį³": 5034,
      "æĶ¾ç½®": 5035,
      "ä»¥å¸®åĬ©": 5036,
      "æĮĸ": 5037,
      "æĻķ": 5038,
      "åı¯ä»¥æĺ¯": 5039,
      "1000": 5040,
      "åľ°ä½į": 5041,
      "è¯ķåĽ¾": 5042,
      "çĹħåĽł": 5043,
      "ict": 5044,
      "åŃ¦ç§ĳ": 5045,
      "è°¨": 5046,
      "ä»ĸä»¬åľ¨": 5047,
      "çļĦç³ĸ": 5048,
      "åŃ¸": 5049,
      "ton": 5050,
      "å¼Ģå±ķ": 5051,
      "æµ¸": 5052,
      "']": 5053,
      "æĦīæĤ¦": 5054,
      "çĥ¤ç®±": 5055,
      "è¿Ļä¸ªåĩ½æķ°": 5056,
      "å®īåħ¨åĴĮ": 5057,
      "åĽ¢éĺŁåĲĪä½ľ": 5058,
      "tt": 5059,
      "æľĢæĸ°çļĦ": 5060,
      "Ġå»ºç«ĭ": 5061,
      "è¿ĺèĥ½": 5062,
      "æľįè£ħ": 5063,
      "rue": 5064,
      "cur": 5065,
      "å¸¦æĿ¥çļĦ": 5066,
      "åıĹæ¬¢è¿İçļĦ": 5067,
      "åĴĮè¡Įä¸º": 5068,
      "åıĳèĤ²": 5069,
      "éĥ½åı¯ä»¥": 5070,
      "å¯¿åĳ½": 5071,
      "çļĦçĻ": 5072,
      "èĴĻ": 5073,
      "å®¢æľį": 5074,
      "å¾Īå¤§": 5075,
      "èĥ½å¤Łåľ¨": 5076,
      "æĵħéķ¿": 5077,
      "åĪĨç±»ä¸º": 5078,
      "çĨŁæĤī": 5079,
      "é»ĳèī²": 5080,
      "è¡Ģæ¶²": 5081,
      "å¤ļåħĥ": 5082,
      "æİ¢éĻ©": 5083,
      "èº«ä½ĵçļĦ": 5084,
      "èĩªçĦ¶çģ¾å®³": 5085,
      "èĢģæĿ¿": 5086,
      "æĮĩå®ļ": 5087,
      "ç²ĺ": 5088,
      "å¤Ħäºİ": 5089,
      "çļĦåħ³ç³»": 5090,
      "æıĲåĪ°äºĨ": 5091,
      "éħįç½®": 5092,
      "éĢĤéĩıçļĦ": 5093,
      "æĴĳ": 5094,
      "åĮĸåĲĪçī©": 5095,
      "ä¸įåĨį": 5096,
      "è¾ĥä¸º": 5097,
      "æ°¸è¿ľ": 5098,
      "åĲĮæĦı": 5099,
      "è¡¨æł¼": 5100,
      "ark": 5101,
      "çµ": 5102,
      "é¸¡èĤī": 5103,
      "çļĦä»»åĬ¡": 5104,
      "çº¿æĢ§": 5105,
      "çļĦçĶŁæ´»æĸ¹å¼ı": 5106,
      "å§Ķ": 5107,
      "æŃ»äº¡": 5108,
      "å¿ĹæĦ¿": 5109,
      "æĻºèĥ½æīĭæľº": 5110,
      "ĠJ": 5111,
      "ia": 5112,
      "ä¸ªä½ĵ": 5113,
      "èº«ä½ĵåĴĮ": 5114,
      "åİ¨æĪ¿": 5115,
      "ä»ĭç»įäºĨ": 5116,
      "åĴĮæ°´": 5117,
      "æĻ®éģį": 5118,
      "æĦıè¯ĨåĪ°": 5119,
      "use": 5120,
      "å»ºè®®ä½ł": 5121,
      "éĻĦè¿ĳ": 5122,
      "å®«é¢Ī": 5123,
      "XXX": 5124,
      "å¥½å¤Ħ": 5125,
      "æ³»": 5126,
      "åĨħåŃĺ": 5127,
      "æĽ¼": 5128,
      "ä¸įå¤Ł": 5129,
      "çĥŃæĥħ": 5130,
      "éĢļä¿¡": 5131,
      "ĠPython": 5132,
      "é¢Ħå¤ĦçĲĨ": 5133,
      "çĮİ": 5134,
      "æĴŀ": 5135,
      "23": 5136,
      "åħĶ": 5137,
      "ound": 5138,
      "åĽĽä¸ª": 5139,
      "çļĦåħ·ä½ĵ": 5140,
      "åĬĽåŃ¦": 5141,
      "é«ĺè¡Ģåİĭ": 5142,
      "åĩĨç¡®åľ°": 5143,
      ".\"": 5144,
      "åĪ«äºº": 5145,
      "ç©¿çĿĢ": 5146,
      "åĩłå¤©": 5147,
      "éĢļå¸¸ä¼ļ": 5148,
      "åĩºè¡Ģ": 5149,
      "å¹¶è¿Ľè¡Į": 5150,
      "åģ¥åº·åĴĮ": 5151,
      "çļĦåĢ¼": 5152,
      "å®¿": 5153,
      "éĤ»": 5154,
      "æĺ¯ä¸Ģé¡¹": 5155,
      "ä¿Ĺ": 5156,
      "çļĦæķĪæŀľ": 5157,
      "åĪĨè§£": 5158,
      "Re": 5159,
      "æĸĩæľ¬åĨħå®¹": 5160,
      "æī«": 5161,
      "å±Ĥæ¬¡": 5162,
      "ç¾İå¥½": 5163,
      "è±¡å¾ģ": 5164,
      "æ´ĭèĳ±": 5165,
      "æ°´ä¸Ń": 5166,
      "åľŁåľ°": 5167,
      "åĸĤ": 5168,
      "æīĭè¡¨": 5169,
      "æķ£æŃ¥": 5170,
      "['": 5171,
      "ç«ŀäºīå¯¹æīĭ": 5172,
      "é¢Ŀå¤ĸ": 5173,
      "ä¿¡çĶ¨": 5174,
      "åĴĮçĲĨè§£": 5175,
      "è´¦æĪ·": 5176,
      "sh": 5177,
      "æ»¡æĦıåº¦": 5178,
      "åĭ¤": 5179,
      "çİ©åħ·": 5180,
      "è¢«è®¤ä¸ºæĺ¯": 5181,
      "enc": 5182,
      "æ¬º": 5183,
      "ä¸¹": 5184,
      "æµħ": 5185,
      "åĴĮçĽ®æłĩ": 5186,
      "åħ¬å¹³": 5187,
      "èĬ±åĽŃ": 5188,
      "è¯¢éĹ®": 5189,
      "å¼ºåº¦": 5190,
      "æ¤ħ": 5191,
      "æĺ¯ä¸Ģéĥ¨": 5192,
      "äºĮæ°§åĮĸç¢³": 5193,
      "å¾Īéļ¾": 5194,
      "å½»åºķ": 5195,
      "åĴĮä½¿çĶ¨": 5196,
      "å°ıåŀĭ": 5197,
      "åĪĿå§ĭ": 5198,
      "å¤ıå¤©": 5199,
      "åĶ¯ä¸Ģ": 5200,
      "å¸ĥå±Ģ": 5201,
      "ä½łè§īå¾Ĺ": 5202,
      "ħåĬĽ": 5203,
      "å¤©çĦ¶": 5204,
      "è¿Ń": 5205,
      "æĥħæĦŁåĪĨæŀĲ": 5206,
      "åįľ": 5207,
      "ä»¥ä¸ĭæŃ¥éª¤": 5208,
      "è½»è½»": 5209,
      "æµģéĩı": 5210,
      "å§ĵåĲį": 5211,
      "å°ĺ": 5212,
      "å¼ºçļĦ": 5213,
      "ä¸ŃçļĦåºĶçĶ¨": 5214,
      "æ¯ıä¸Ģä¸ª": 5215,
      "è¿Ł": 5216,
      "æĹ¶éĹ´çļĦ": 5217,
      "åĩºçİ°çļĦ": 5218,
      "ä¸īè§Ĵ": 5219,
      "æ³¨æĦıäºĭé¡¹": 5220,
      "èĬĤçº¦": 5221,
      "æľªçŁ¥": 5222,
      "ç§ĳå¹»": 5223,
      "éĢĬ": 5224,
      "éĴ®": 5225,
      "å¤ĸéĥ¨": 5226,
      "++": 5227,
      "arn": 5228,
      "tring": 5229,
      "åĪĿåŃ¦èĢħ": 5230,
      "dex": 5231,
      "21": 5232,
      "æĪĳä»¬åľ¨": 5233,
      "æĮĳæĪĺåĴĮ": 5234,
      "ä¸īç§į": 5235,
      "éĢīæĭ©ä¸Ģä¸ª": 5236,
      "èĤļ": 5237,
      "å¿Į": 5238,
      "lex": 5239,
      "åŃ¦æľ¯": 5240,
      "åİ»äºĨ": 5241,
      "çĶ¨éĢĶ": 5242,
      "æĸĳ": 5243,
      "æ¢¯": 5244,
      "Ġthis": 5245,
      "ä»¥åīį": 5246,
      "èĻļæĭŁçİ°å®ŀ": 5247,
      "åħ´å¥ĭ": 5248,
      "æĭ¥åłµ": 5249,
      "Ġ+=": 5250,
      "ĠÃ·": 5251,
      "çİ¯å¢ĥåĴĮ": 5252,
      "åĿĩè¡¡": 5253,
      "æĭĶ": 5254,
      "ress": 5255,
      "çŁĽçĽ¾": 5256,
      "è¾¨": 5257,
      "çĽ¸åĲĮçļĦ": 5258,
      "xx": 5259,
      "åŁºæľ¬çļĦ": 5260,
      "ä½łæľīä»Ģä¹Ī": 5261,
      "èĥ¡æ¤Ĵ": 5262,
      "åĮ»çĶŁçļĦ": 5263,
      "æĺ¨å¤©": 5264,
      "æ³¥": 5265,
      "åıįå¤į": 5266,
      "è·¯å¾Ħ": 5267,
      "ome": 5268,
      "35": 5269,
      "æģ°": 5270,
      "æıĲåīį": 5271,
      "du": 5272,
      "å¼Ģå¤´": 5273,
      "äººåľ¨": 5274,
      "æ¿Ģç´ł": 5275,
      "å¦ĩç§ĳ": 5276,
      "çļĦçŁŃ": 5277,
      "æĴĴ": 5278,
      "è¯·æ³¨æĦı": 5279,
      "éĶħä¸Ń": 5280,
      "çīĽèĤī": 5281,
      "å¹¶ç¡®ä¿Ŀ": 5282,
      "æ¯ıä¸ªæľĭåıĭ": 5283,
      "ä¹Łåľ¨": 5284,
      "ä¼ģä¸ļå®¶": 5285,
      "åİĤ": 5286,
      "å¯¹äººç±»": 5287,
      "æıŃ": 5288,
      "åľ°éľĩ": 5289,
      "è¿Ļæł·åı¯ä»¥": 5290,
      "æĮīéĴ®": 5291,
      "çļĦçĬ¶æĢģ": 5292,
      "çĲĨæĥ³": 5293,
      "èĬĤæĹ¥": 5294,
      "çĽ¸åĬł": 5295,
      "br": 5296,
      "æ°´åĴĮ": 5297,
      "æĶ¯åĩº": 5298,
      "çľŁæŃ£çļĦ": 5299,
      "æĦŁçŁ¥": 5300,
      "éĤĢ": 5301,
      "æĶ¾å¼ĥ": 5302,
      "ä¿ĿåŃĺ": 5303,
      "gle": 5304,
      "æĲº": 5305,
      "è´§å¸ģ": 5306,
      "æ¢ħ": 5307,
      "rr": 5308,
      "ç¿»è¯ĳæĪĲ": 5309,
      "ike": 5310,
      "æĪĳåĲ¬è¯´": 5311,
      "å¸Ĥåľºä¸Ĭ": 5312,
      "æĮĩä»¤": 5313,
      "çİ»": 5314,
      "%ãĢĤ": 5315,
      "ä¸Ģç¯ĩåħ³äºİ": 5316,
      "åĳķ": 5317,
      "åı£è¯Ń": 5318,
      "æ£ĭ": 5319,
      "gr": 5320,
      "çĶŁåĳ½çļĦ": 5321,
      "å¯¹æ¯Ķ": 5322,
      "Ġadd": 5323,
      "æĺ¯éĢļè¿ĩ": 5324,
      "åı¹": 5325,
      "æµ´": 5326,
      "æīĵéĢł": 5327,
      "å¹¿æ³ĽçļĦ": 5328,
      "æĢ»ä½ĵ": 5329,
      "è³": 5330,
      "å®ŀéĻħä¸Ĭ": 5331,
      "èĩĤ": 5332,
      "æİ¥æĶ¶": 5333,
      "éĵº": 5334,
      "ä¼łè¾ĵ": 5335,
      "åį«æĺŁ": 5336,
      "è¿ĺåī©ä¸ĭ": 5337,
      "ä¾Ĩ": 5338,
      "æķ°åŃ¦é¢ĺ": 5339,
      "ions": 5340,
      "çļĦç«ŀäºī": 5341,
      "åı¯æĺ¯": 5342,
      "çļĦæł¸å¿ĥ": 5343,
      "è¿Ļä¹Ī": 5344,
      "åĳĺå·¥çļĦ": 5345,
      "åĽºå®ļ": 5346,
      "åĩºèī²": 5347,
      "ä¿ĿçķĻ": 5348,
      "å¹¼": 5349,
      "hone": 5350,
      "å°Ĭæķ¬": 5351,
      "åĵºä¹³åĬ¨çī©": 5352,
      "æ¸´": 5353,
      "è®©ä»ĸä»¬": 5354,
      "çļĦè¯Ńè¨Ģ": 5355,
      "æĪĳä»¬çļĦäº§åĵģ": 5356,
      "æĺ¯å¤ļå°ĳ": 5357,
      "çļĦç¨ĭåºı": 5358,
      "ID": 5359,
      "è¿Ĳè¾ĵ": 5360,
      "èİ·å¾ĹäºĨ": 5361,
      "è¡Įé©¶": 5362,
      "æĺ¯æľĢ": 5363,
      "ç»Ļåĩºä¸Ģä¸ª": 5364,
      "Ġyour": 5365,
      "çĪ·": 5366,
      "çļĦåħĥç´ł": 5367,
      "çļĦç¤º": 5368,
      "æµı": 5369,
      "å·¥ä½ľåĴĮ": 5370,
      "ä¸įç¡®å®ļ": 5371,
      "çļĦåı¥åŃĲ": 5372,
      "verse": 5373,
      "ä¹Ķ": 5374,
      "å½¢æĢģ": 5375,
      "çĳŀ": 5376,
      "åĽŀå¿Ĩ": 5377,
      "çī©æµģ": 5378,
      "ç¨į": 5379,
      "å¼¦": 5380,
      "çļĦæľįåĬ¡": 5381,
      "æŁł": 5382,
      "æµıè§Ī": 5383,
      "IT": 5384,
      "ä½Ĩåľ¨": 5385,
      "è®¯": 5386,
      "å¤§äºİ": 5387,
      "åıĤè§Ĥ": 5388,
      "ä»¥ä¸ĭéĹ®é¢ĺ": 5389,
      "ail": 5390,
      "åĢĳ": 5391,
      "ML": 5392,
      "æĸ¹æ³ķæĿ¥": 5393,
      "æĪĳåĸľæ¬¢": 5394,
      "æ©Ħ": 5395,
      "ell": 5396,
      "ä¸Ĭä¸ĭæĸĩ": 5397,
      "ss": 5398,
      "åĵ¦": 5399,
      "åı¯è§Ĩ": 5400,
      "åĲ¬èµ·æĿ¥å¾Ī": 5401,
      "æī¿æĭħ": 5402,
      "ç®Ģè¦ģ": 5403,
      "æŃ£è§Ħ": 5404,
      "ä¼łæĦŁ": 5405,
      "å¼ºåĮĸ": 5406,
      "çİ¯å¢ĥçļĦ": 5407,
      "åĪĨåĪ°": 5408,
      "éĺĶ": 5409,
      "æĹ©é¤Ĳ": 5410,
      "gth": 5411,
      "è®©äººä»¬": 5412,
      "ä¸Ńæľī": 5413,
      "åĩºçİ°äºĨ": 5414,
      "æ¶ĪéĻ¤": 5415,
      "ick": 5416,
      "æĸľ": 5417,
      "æ²Ļæĭī": 5418,
      "æıĴåħ¥": 5419,
      "æ¯ķä¸ļ": 5420,
      "çİ°åľº": 5421,
      "æı´": 5422,
      "æ¦Ħ": 5423,
      "Ġè®¡ç®Ĺ": 5424,
      "è¾ĵåĩºç»ĵæŀľ": 5425,
      "æĪĳå°Ĩ": 5426,
      "æĹ¶åħī": 5427,
      "åĴĮä¸Ģä¸ª": 5428,
      "è¿ľç¨ĭ": 5429,
      "ä»ĭç»įä¸Ģä¸ĭ": 5430,
      "éĻ¤æŃ¤": 5431,
      "è°Ĭ": 5432,
      "å°ºå¯¸": 5433,
      "èĨĢ": 5434,
      "æ¶Īæŀģ": 5435,
      "ç¯®çĲĥ": 5436,
      "ck": 5437,
      "æ©Ħæ¦Ħ": 5438,
      "è¿Ļé¡¹": 5439,
      "å²¸": 5440,
      "é£İæĻ¯": 5441,
      "éĿŀå¸¸å¥½": 5442,
      "æĸ°éĹ»æĬ¥éģĵ": 5443,
      "æŃī": 5444,
      "é¢Ĺç³ĸæŀľ": 5445,
      "æĪª": 5446,
      "æ¸©å®¤æ°Ķä½ĵ": 5447,
      "Ġç¡®å®ļ": 5448,
      "å¢¨": 5449,
      "æķ´çĲĨ": 5450,
      "åı¯ä»¥ä»İ": 5451,
      "åį±å®³": 5452,
      "æľĢåĸľæ¬¢çļĦ": 5453,
      "åįıåĬ©": 5454,
      "åĵªç§į": 5455,
      "ä¸ĭåĪĹ": 5456,
      "æ¯ıåĳ¨": 5457,
      "å°į": 5458,
      "çĲĥåĳĺ": 5459,
      "éĢĲæŃ¥": 5460,
      "é³": 5461,
      "çļĦçľ¼": 5462,
      "é¾Ł": 5463,
      "æª¬": 5464,
      "ä¾¿æį·": 5465,
      "Ġmax": 5466,
      "æķ°åĢ¼": 5467,
      "ä»Ļ": 5468,
      "çļĦæķ°åŃĹ": 5469,
      "çİ¯å¢ĥä¸Ń": 5470,
      "åĬłçĥŃ": 5471,
      "isa": 5472,
      "éĥ½èĥ½": 5473,
      "çĪ½": 5474,
      "çļĦä¸»": 5475,
      "ä¸ĢåĪĩ": 5476,
      "æ´ª": 5477,
      "ree": 5478,
      "ç»ĵæŀĦåĴĮ": 5479,
      "çĴĥ": 5480,
      "ç½²": 5481,
      "ong": 5482,
      "å¯¹åħ¶": 5483,
      "æĢĿè·¯": 5484,
      "çļĦç¤ºä¾ĭ": 5485,
      "æ¯įäº²": 5486,
      "å¯Ĩåº¦": 5487,
      "Ġstr": 5488,
      "éĻ¤æŃ¤ä¹ĭå¤ĸ": 5489,
      "å²Ĺ": 5490,
      "ç«Ł": 5491,
      "æĭĸ": 5492,
      "ä»ĸäººçļĦ": 5493,
      "æĺ¯å¦Ĥä½ķ": 5494,
      "åľ°éĿ¢": 5495,
      "è¾£æ¤Ĵ": 5496,
      "å®¶åºŃæĪĲåĳĺ": 5497,
      "èĲĿåįľ": 5498,
      "æĻĤ": 5499,
      "æŁłæª¬": 5500,
      "ä¸Ģåľº": 5501,
      "æ¸ħçĲĨ": 5502,
      "é£Łè°±": 5503,
      "ç®ĢåİĨ": 5504,
      "\"\"": 5505,
      "å±ķå¼Ģ": 5506,
      "çĩĥæĸĻ": 5507,
      "åĭĴ": 5508,
      "åİŁåŃĲ": 5509,
      "èı²": 5510,
      "æĪĳä»¬åı¯ä»¥éĢļè¿ĩ": 5511,
      "è´¾": 5512,
      "åį°åº¦": 5513,
      "ite": 5514,
      "å¯Įæľī": 5515,
      "çļĦç©ºéĹ´": 5516,
      "è¯¸": 5517,
      "åĭĥ": 5518,
      "GP": 5519,
      "ä¸ªäººçļĦ": 5520,
      "ä¸ŃéĹ´": 5521,
      "èįīèİĵ": 5522,
      "æ°´çļĦ": 5523,
      "èĪĮ": 5524,
      "é¦¨": 5525,
      "æŁľ": 5526,
      "Ġwas": 5527,
      "è¡°": 5528,
      "åĴĮéľĢæ±Ĥ": 5529,
      "å°ıåįİ": 5530,
      "pp": 5531,
      "éĩİçĶŁ": 5532,
      "åħ³éĹŃ": 5533,
      "å¤ļæ¬¡": 5534,
      "æĪĴ": 5535,
      "åıĸä»£": 5536,
      "æľ¬è´¨": 5537,
      "éĩįå¤§": 5538,
      "ä¼łæĦŁåĻ¨": 5539,
      "ĠV": 5540,
      "çĶŁæĹ¥": 5541,
      "è´·æ¬¾": 5542,
      "ype": 5543,
      "åı¯ä»¥ä½¿": 5544,
      "Ġat": 5545,
      "åŃĲéĩĮ": 5546,
      "æĻĴ": 5547,
      "æ¸ħçĥŃè§£æ¯Ĵ": 5548,
      "èĪĴæľį": 5549,
      "é«ĺæķĪçļĦ": 5550,
      "éĴĻ": 5551,
      "åı¤èĢģ": 5552,
      "å¤§èĩªçĦ¶": 5553,
      "æ»ļ": 5554,
      "è¿Ļå®¶": 5555,
      "å°ıçİĭ": 5556,
      "åįĩçº§": 5557,
      "è®¾è®¡åĴĮ": 5558,
      "ĊĠĠĠĠĠĠĠĠĠĠĠĠĠĠĠĠ": 5559,
      "åħįçĸ«åĬĽ": 5560,
      "æĪĲçĨŁ": 5561,
      "ll": 5562,
      "sc": 5563,
      "æĿĥåĪ©": 5564,
      "å«Į": 5565,
      "å¼¯": 5566,
      "å¦ĤæŀľæĪĳä»¬": 5567,
      "éĥ¨ä½į": 5568,
      "æĻ¨": 5569,
      "æĹłäºº": 5570,
      "åĢ¾åĲ¬": 5571,
      "ĠU": 5572,
      "ä½ľä¸ºä¸Ģä¸ª": 5573,
      "ç§įæĹı": 5574,
      "åº¦è¿ĩ": 5575,
      "è½¬ç§»": 5576,
      "åĲĪéĢĤ": 5577,
      "è¯ĦåĪĨ": 5578,
      "èĬ³": 5579,
      "åĴĮæĬĢèĥ½": 5580,
      "yst": 5581,
      "èĸª": 5582,
      "åĲĪæ³ķ": 5583,
      "NL": 5584,
      "ä¸Ģç¯ĩæĸĩç«ł": 5585,
      "ç²¾åĩĨ": 5586,
      "æľįåĬ¡åĻ¨": 5587,
      "ç¢ĳ": 5588,
      "æĿ¥è¿Ľè¡Į": 5589,
      "çĶŁçĲĨ": 5590,
      "æĹ¶çļĦ": 5591,
      "èĢĲå¿ĥ": 5592,
      "åĮħçļ®": 5593,
      "æĽ´é«ĺ": 5594,
      "Jack": 5595,
      "æĺ¯åĽłä¸º": 5596,
      "éĥ½åľ¨": 5597,
      "ä¹Łè¦ģ": 5598,
      "åıł": 5599,
      "æĪĳè¿ĺ": 5600,
      "æĪĳä»¬åħ¬åı¸": 5601,
      "çĸ«æĥħ": 5602,
      "æĮĩçļĦæĺ¯": 5603,
      "å®ĮæĪĲä»»åĬ¡": 5604,
      "ä¹īè¯į": 5605,
      "åľ¨æŃ¤": 5606,
      "çİ»çĴĥ": 5607,
      "å£³": 5608,
      "æİ¥çĿĢ": 5609,
      "çĶ¨åĵģ": 5610,
      "èīºæľ¯å®¶": 5611,
      "ç¾İåĳ³çļĦ": 5612,
      "ä¸»åĬ¨": 5613,
      "æĹĭè½¬": 5614,
      "æĺ¯éĿŀå¸¸": 5615,
      "ä¼ģä¸ļçļĦ": 5616,
      "ä»¥éģ¿åħį": 5617,
      "äººæķ°": 5618,
      "éĢĶå¾Ħ": 5619,
      "å°ĸ": 5620,
      "Ġ100": 5621,
      "èĥ½å¤Łå¸®åĬ©": 5622,
      "][": 5623,
      "ble": 5624,
      "py": 5625,
      "å¹´äºº": 5626,
      "çĽ¸åıį": 5627,
      "é¥±": 5628,
      "éĻĪè¿°": 5629,
      "ä¼ĳéĹ²": 5630,
      "èī¾ç±³": 5631,
      "æĽ´å¤§çļĦ": 5632,
      "èĬĤèĥ½": 5633,
      "èĩ³åħ³éĩįè¦ģ": 5634,
      "å®Įç¾İ": 5635,
      "åĪ©äºİ": 5636,
      "è¿ĩå¤ļ": 5637,
      "åıĭè°Ĭ": 5638,
      "çŁ©éĺµ": 5639,
      "å¹½": 5640,
      "çļĦç¡": 5641,
      "å¸¸è§Ħ": 5642,
      "æĿĲè´¨": 5643,
      "max": 5644,
      "Ġ15": 5645,
      "è±ĨèħĲ": 5646,
      "é¢ĳç¹ģ": 5647,
      "å¹¶æł¹æį®": 5648,
      "çļĦç¾İé£Ł": 5649,
      "çİ¯å¢ĥæ±¡æŁĵ": 5650,
      "Ċĉ": 5651,
      "åŀĤ": 5652,
      "Ġæĺ¯": 5653,
      "å¸¦æľī": 5654,
      "æ²ŁéĢļåĴĮ": 5655,
      "åįģå¹´": 5656,
      "å¤©ä½ĵ": 5657,
      "å·¨å¤§": 5658,
      "å¦Ĥæŀľæľī": 5659,
      "MO": 5660,
      "åĲİæĿ¥": 5661,
      "ç¨Ģ": 5662,
      "çĽŁ": 5663,
      "æ²»çĸĹæĸ¹æ¡Ī": 5664,
      "éħª": 5665,
      "lement": 5666,
      "22": 5667,
      "åģļæ³ķ": 5668,
      "é£ŀæľº": 5669,
      "è¾ĥä½İ": 5670,
      "åĭĩæķ¢": 5671,
      "éĺĲè¿°": 5672,
      "æħĪ": 5673,
      "åı·çłģ": 5674,
      "çĸı": 5675,
      "èİİ": 5676,
      "èĴĤ": 5677,
      "Ġå¯¹": 5678,
      "åľ¨è¿Ļç§į": 5679,
      "Lisa": 5680,
      "è¿Ńä»£": 5681,
      "åı¯ä»¥åĩıå°ĳ": 5682,
      "çĹĴ": 5683,
      "ä¸Ńä½¿çĶ¨": 5684,
      "éĿ¢ç²ī": 5685,
      "åĲ¬åĪ°": 5686,
      "å°Ĩå®ĥä»¬": 5687,
      "æ¶Īå¤±": 5688,
      "çŃīæĬĢæľ¯": 5689,
      "Ġval": 5690,
      "æĻ¶": 5691,
      "åĲĦåľ°": 5692,
      "æĸĩåĮĸçļĦ": 5693,
      "åĩĨç¡®çļĦ": 5694,
      "å¼ºå¤§": 5695,
      "æĭŁåĲĪ": 5696,
      "åĩ¡": 5697,
      "è§ĤçļĦ": 5698,
      "æĮĸæİĺ": 5699,
      "ç²¾ç¡®": 5700,
      "æĭĵå±ķ": 5701,
      "Ġfrom": 5702,
      "æĹ¥å¸¸çĶŁæ´»": 5703,
      "çĽ¸äºĴä½ľçĶ¨": 5704,
      "ystem": 5705,
      "çļĦçĭ¬": 5706,
      "çľĭåĪ°äºĨ": 5707,
      "åģ¿": 5708,
      "åĽŀæĬ¥": 5709,
      "å¯¼èĩ´çļĦ": 5710,
      "å¦Ĥä½ķä½¿çĶ¨": 5711,
      "éĩĳé¢Ŀ": 5712,
      "ä¹Į": 5713,
      "æĥ§": 5714,
      "Sara": 5715,
      "utton": 5716,
      "å·¥ä½ľæķĪçİĩ": 5717,
      "æ¡Ĥ": 5718,
      "ä¸ªäººä¿¡æģ¯": 5719,
      "åĪ¶æĪĲ": 5720,
      "æĿ¥åĪ°": 5721,
      "èıĩ": 5722,
      "èĦĨ": 5723,
      "åĺ´": 5724,
      "æĹłè®ºæĺ¯": 5725,
      "è¿ŀç»Ń": 5726,
      "å¹¶æıĲé«ĺ": 5727,
      "é¢ĨåŁŁçļĦåºĶçĶ¨": 5728,
      "å·²ç»ıæĪĲä¸º": 5729,
      "pr": 5730,
      "æµĩ": 5731,
      "Ġun": 5732,
      "äºİæĺ¯": 5733,
      "æĺİå¤©": 5734,
      "è¿ĳå¹´æĿ¥": 5735,
      "ç«ŀ": 5736,
      "å®¶æĹı": 5737,
      "å®¢æĪ·æľįåĬ¡": 5738,
      "ps": 5739,
      "èİ±": 5740,
      "ĠæıĲä¾Ľ": 5741,
      "æĸ°äº§åĵģ": 5742,
      "æ³¢éĤ£": 5743,
      "å¹¿æ³ĽçļĦåºĶçĶ¨": 5744,
      "300": 5745,
      "åħ¼": 5746,
      "ç´łè´¨": 5747,
      "æĮĩå¯¼ä¸ĭ": 5748,
      "æĺ¯åı¯ä»¥": 5749,
      "èĤ©": 5750,
      "åĴĮåŃ¦ä¹ł": 5751,
      "é¸Ń": 5752,
      "æĪĳæĥ³çŁ¥éģĵ": 5753,
      "Ġsum": 5754,
      "ç®Ĺæ³ķçļĦ": 5755,
      "æ³¢éĤ£å¥ĳ": 5756,
      "ĠåĪ¶å®ļ": 5757,
      "Ġå½ĵçĦ¶": 5758,
      "éļ¾åº¦": 5759,
      "çļĦç½ĳç«Ļ": 5760,
      "å®³æĢķ": 5761,
      "è°ĥçĲĨ": 5762,
      "åĴ½": 5763,
      "æĤł": 5764,
      "Ġå®ļä¹ī": 5765,
      "çŃīå¤ļç§į": 5766,
      "append": 5767,
      "æ¸©é¦¨": 5768,
      "æĸĲæ³¢éĤ£å¥ĳ": 5769,
      "åĩºèī²çļĦ": 5770,
      "æĹłéĻĲ": 5771,
      "å·¢": 5772,
      "éĽĨæĪĲ": 5773,
      "çļĦåīį": 5774,
      "è®¢åįķ": 5775,
      "èĺ": 5776,
      "æŃ£å¼ı": 5777,
      "è´¸": 5778,
      "ä¸ºä½ł": 5779,
      "è°¢è°¢ä½łçļĦ": 5780,
      "Ġä¸Ń": 5781,
      "æĺ¯ä¸į": 5782,
      "å¾Ĵ": 5783,
      "ç±»çļĦ": 5784,
      "ä¸įåĪ°": 5785,
      "åľ°åĮºçļĦ": 5786,
      "ä»¥æĿ¥": 5787,
      "åĲ¹": 5788,
      "æĿİåįİ": 5789,
      "å¤§è§Ħæ¨¡": 5790,
      "ĠY": 5791,
      "è¿Ļæľ¬ä¹¦": 5792,
      "èŃ¦å¯Ł": 5793,
      "Ġhave": 5794,
      "æĪĳå¸ĮæľĽ": 5795,
      "æĪĳä»¬çļĦçĶŁæ´»": 5796,
      "Alex": 5797,
      "ä»¥ä¸ĭæĺ¯ä¸Ģéģĵ": 5798,
      "äººç¾¤": 5799,
      "æİ¥è¿ĳ": 5800,
      "ä¸Ģå¼ł": 5801,
      "æĭľ": 5802,
      "æĪĲç«ĭ": 5803,
      "çļĦçĤ": 5804,
      "éĤĢè¯·": 5805,
      "å°±åĥı": 5806,
      "æ¿ĢçĥĪ": 5807,
      "ä½łä¼ļ": 5808,
      "æľºåĻ¨ç¿»è¯ĳ": 5809,
      "son": 5810,
      "ä¸§": 5811,
      "è¾Ĳ": 5812,
      "å·¥ä½ľä¸Ń": 5813,
      "æŁĶè½¯": 5814,
      "è¾¾æĪĲ": 5815,
      "ç¥ŀç§ĺçļĦ": 5816,
      "åħ³å¿ĥ": 5817,
      "ĠæĪĳä»¬": 5818,
      "ST": 5819,
      "è½¨éģĵ": 5820,
      "æİ¨è¿Ľ": 5821,
      "æĭĨ": 5822,
      "æŁĲç§į": 5823,
      "çĽ®æłĩåĴĮ": 5824,
      "éĩĮéĿ¢": 5825,
      "oogle": 5826,
      "çĻĮçĹĩ": 5827,
      "è®¤åı¯": 5828,
      "ml": 5829,
      "ç»Īäºİ": 5830,
      "åĬ¨è¯į": 5831,
      "ä¸įå°ĳ": 5832,
      "èĭ±éĽĦ": 5833,
      "ä¸įçŁ¥": 5834,
      "åģľæŃ¢": 5835,
      "è®¡ç®Ĺæľºè§Ĩè§ī": 5836,
      "çº¦ä¸º": 5837,
      "éĨĩ": 5838,
      "çĤ¹åĩ»": 5839,
      "åħ³éĶ®åŃĹ": 5840,
      "åĨ·éĿĻ": 5841,
      "åįĩé«ĺ": 5842,
      "çĺĢ": 5843,
      "åĪĽéĢłåĬĽ": 5844,
      "åıĸå¾ĹäºĨ": 5845,
      "çŃĽéĢī": 5846,
      "ä¸Ģä»¶": 5847,
      "ç»Ļå®ļä¸Ģä¸ª": 5848,
      "ä¸ĭä¸Ģä¸ª": 5849,
      "æĺ¯ä¸įæĺ¯": 5850,
      "å±ħä½ı": 5851,
      "èµ·æºĲ": 5852,
      "å°ıåŃ¦æķ°åŃ¦é¢ĺ": 5853,
      "åħ¶ä»ĸçļĦ": 5854,
      "åĸĿæ°´": 5855,
      "è¿Ļé¦ĸ": 5856,
      "ä»¥ä¸ĭæĺ¯ä¸Ģéģĵå°ıåŃ¦æķ°åŃ¦é¢ĺ": 5857,
      "åĲĪå¹¶": 5858,
      "æķ°åŃĹçļĦ": 5859,
      "æ³¢åĬ¨": 5860,
      "å·²çŁ¥": 5861,
      "Âł": 5862,
      "ä¸įå¿ħè¦ģçļĦ": 5863,
      "å¥½åĥı": 5864,
      "Ġtext": 5865,
      "éĢļçŁ¥": 5866,
      "çŃīä¿¡æģ¯": 5867,
      "NN": 5868,
      "åĽłä¸ºå®ĥä»¬": 5869,
      "ĠK": 5870,
      "çļĦä»£çłģ": 5871,
      "èĥľåĪ©": 5872,
      "åĽŀåĪ°": 5873,
      "æĺ¯ä¸Ģå®¶": 5874,
      "çĶ·åŃ©": 5875,
      "erson": 5876,
      "æĥĳ": 5877,
      "é£İæļ´": 5878,
      "åĴĮä¼ĺåĮĸ": 5879,
      "ç¦ıåĪ©": 5880,
      "æīİ": 5881,
      "æĽ´æĶ¹": 5882,
      "å¼ºè°ĥäºĨ": 5883,
      "åįĵ": 5884,
      "åĸī": 5885,
      "æľīçĽĬ": 5886,
      "åŃĹåħ¸": 5887,
      "åĢ¾åĲĳ": 5888,
      "ä¸ŃåĽ½çļĦ": 5889,
      "éģĹäº§": 5890,
      "æĢ§çĶŁæ´»": 5891,
      "ER": 5892,
      "æĪĸæľįåĬ¡": 5893,
      "å¤®": 5894,
      "ä¸ºä¸Ģä¸ª": 5895,
      "å®ĥå°Ĩ": 5896,
      "æĮĩç¤º": 5897,
      "å°ĳå¹´": 5898,
      "æľĪçĲĥ": 5899,
      "åºĦ": 5900,
      "å®¶éĩĮ": 5901,
      "åĪ¶åĵģ": 5902,
      "æııç»ĺ": 5903,
      "æĬĳéĥģ": 5904,
      "lst": 5905,
      "å½ĵä½ł": 5906,
      "æĥľ": 5907,
      "åĬ¨æľº": 5908,
      "è¾Ĳå°Ħ": 5909,
      "åıĺéĿ©": 5910,
      "çļĦæ´»åĬ¨": 5911,
      "å¾ĹåĪĨ": 5912,
      "è§Ĥçľĭ": 5913,
      "____": 5914,
      "ä¸ĬäºĨ": 5915,
      "åī§æĥħ": 5916,
      "çļĦæ°´": 5917,
      "æĪĳçĽ¸ä¿¡": 5918,
      "æķĻæİĪ": 5919,
      "è¢ĸ": 5920,
      "æ·»åĬłåĪ°": 5921,
      "éªĹ": 5922,
      "å®ļå¾ĭ": 5923,
      "èĩ´ä½¿": 5924,
      "ä»¥ä¸ĭåı¥åŃĲ": 5925,
      "å§ĭç»Īä¿ĿæĮģ": 5926,
      "ç½©": 5927,
      "rent": 5928,
      "å¤¹": 5929,
      "ç«¹": 5930,
      "å¦¹": 5931,
      "âĢĻ": 5932,
      "Ġä¸ª": 5933,
      "ãĢĳ": 5934,
      "ãĢĲ": 5935,
      "åı¯éĿłæĢ§": 5936,
      "Ġus": 5937,
      "æĮ«": 5938,
      "çĸĹæ³ķ": 5939,
      "ax": 5940,
      "çļĦè´¨éĩı": 5941,
      "æľĥ": 5942,
      "åİ»éĻ¤": 5943,
      "æ²»çĸĹæĸ¹æ³ķ": 5944,
      "æµĨ": 5945,
      "éĢīçĶ¨": 5946,
      "åıĳå±ķçļĦ": 5947,
      "å°Ĭæķ¬çļĦ": 5948,
      "äº§çĶŁçļĦ": 5949,
      "Ġdata": 5950,
      "æī¾åĪ°äºĨ": 5951,
      "èĬ¬": 5952,
      "åĨįæ¬¡åĩºçİ°": 5953,
      "é¢ĦæľŁ": 5954,
      "è¯Ī": 5955,
      "åĨ³çŃĸæłĳ": 5956,
      "æ·±åĳ¼åĲ¸": 5957,
      "ther": 5958,
      "æĺİçĻ½äºĨ": 5959,
      "ĠSt": 5960,
      "ç¨³å®ļçļĦ": 5961,
      "Ġen": 5962,
      "ä¸įçĶ¨": 5963,
      "éĽķ": 5964,
      "çļĦåŁİå¸Ĥ": 5965,
      "éĩıåĴĮ": 5966,
      "ne": 5967,
      "æĦıå¤§åĪ©éĿ¢": 5968,
      "å»ºç«ĭä¸Ģä¸ª": 5969,
      "åĨĻä¸Ģä¸ª": 5970,
      "æ¸¯": 5971,
      "ä¸ºæĪĳ": 5972,
      "å®ŀéĻħåºĶçĶ¨": 5973,
      "åĪĺ": 5974,
      "æĹ¶éĹ´åĨħ": 5975,
      "æ©Ħæ¦Ħæ²¹": 5976,
      "çİ°éĩĳ": 5977,
      "éĨĭ": 5978,
      "å¯¹æĸ¹çļĦ": 5979,
      "å®īéĿĻ": 5980,
      "æĬĢå·§åĴĮ": 5981,
      "nums": 5982,
      "æĶ¿æ²»": 5983,
      "å½ĵä»Ĭ": 5984,
      "æľīçĶ¨çļĦ": 5985,
      "æľĢå¤§åĢ¼": 5986,
      "éľľ": 5987,
      "èĲ¥éĢł": 5988,
      "ä¸įå¾Ĺ": 5989,
      "åľ¨åĮ»çĸĹ": 5990,
      "èĻİ": 5991,
      "ç¶": 5992,
      "æįŁä¼¤": 5993,
      "è¿ĻæľīåĬ©äºİ": 5994,
      "è¿ĩæķı": 5995,
      "ä¸Ģéģĵ": 5996,
      "æĭ¼åĨĻ": 5997,
      "èĤ¯å®ļ": 5998,
      "éģ¥": 5999,
      "è®²è¿°äºĨ": 6000,
      "åĵģçīĮçļĦ": 6001,
      "å¾Īå¿«": 6002,
      "åı¤åħ¸": 6003,
      "cess": 6004,
      "36": 6005,
      "æĥħåĨµåĴĮ": 6006,
      "æĦıå¤ĸ": 6007,
      "æĪĳå·²ç»ı": 6008,
      "çħ§é¡¾": 6009,
      "è¿Ļä¹Ł": 6010,
      "ĠTh": 6011,
      "è®¸å¤ļäºº": 6012,
      "æķ¦": 6013,
      "ç¢°": 6014,
      "è´¢äº§": 6015,
      "ample": 6016,
      "åĲĥäºĨ": 6017,
      "é¥®é£Łä¹łæĥ¯": 6018,
      "æĿ¥å¸®åĬ©": 6019,
      "çĽ®çļĦæĺ¯": 6020,
      "å»ºéĢł": 6021,
      "æĪĸæĺ¯": 6022,
      "alc": 6023,
      "åı¯è§ĨåĮĸ": 6024,
      "çİĩåĴĮ": 6025,
      "åĬŀæ³ķ": 6026,
      "æľ¯è¯Ń": 6027,
      "åĴª": 6028,
      "å°ıäºİ": 6029,
      "åŀĥåľ¾åĪĨç±»": 6030,
      "æ¯ĶèµĽä¸Ń": 6031,
      "çļĦä¸įåĲĮ": 6032,
      "åĮħè£ħ": 6033,
      "äºīè®®": 6034,
      "ä¿ĿæĮģèī¯å¥½çļĦ": 6035,
      "æ¼ł": 6036,
      "abel": 6037,
      "`ãĢĤ": 6038,
      "âĦ": 6039,
      "åıĳä½ľ": 6040,
      "æĹ©æ³Ħ": 6041,
      "Emily": 6042,
      "ç®Ģçº¦": 6043,
      "æľĢéĢĤåĲĪ": 6044,
      "åŀ«": 6045,
      "åħįè´¹": 6046,
      "æĢİä¹Īæł·": 6047,
      "çļĦé«ĺ": 6048,
      "åıĻè¿°": 6049,
      "æīĭæľ¯æ²»çĸĹ": 6050,
      "æºĥ": 6051,
      "è§£çŃĶ": 6052,
      "ä»£çłģä¸Ń": 6053,
      "ç¬¬ä¸Ģæ¬¡": 6054,
      "åĬ£": 6055,
      "å¿ĥçģµ": 6056,
      "çĿ¾": 6057,
      "çĵ£": 6058,
      "ä¹Ĳè¶£": 6059,
      "æľīæ°§": 6060,
      "train": 6061,
      "è¯´è¯Ŀ": 6062,
      "åŃĺåľ¨çļĦ": 6063,
      "ãĢĮ": 6064,
      "èģĶåĲĪ": 6065,
      "çļĦè¡¨çİ°": 6066,
      "sole": 6067,
      "çļĦæŃ¥éª¤": 6068,
      "ä¸¤äºº": 6069,
      "è¯·åĳĬè¯īæĪĳ": 6070,
      "Ġ30": 6071,
      "æĸ¼": 6072,
      "æĪĳä»¬ä¹Ł": 6073,
      "æ¶¯": 6074,
      "Ġcount": 6075,
      "ãĢį": 6076,
      "...": 6077,
      "èĬĤçĽ®": 6078,
      "let": 6079,
      "æĺ¯ä¸Ģæ¬¾": 6080,
      "èĻ¾": 6081,
      "å§Ĳ": 6082,
      "äºĳè®¡ç®Ĺ": 6083,
      "æ¢Ĺ": 6084,
      "å¥Ķ": 6085,
      "éĢļè¿ĩå¯¹": 6086,
      "çĶ»éĿ¢": 6087,
      "å¤ĩçĶ¨": 6088,
      "æľīå®³": 6089,
      "æĬ¹": 6090,
      "æ³ª": 6091,
      "åĽ¾çīĩ": 6092,
      "ï¼ļ\"": 6093,
      "è¿ĺä¼ļ": 6094,
      "ph": 6095,
      "Ġab": 6096,
      "å½Ĵç±»": 6097,
      "èĨı": 6098,
      "ç¼ĸçłģ": 6099,
      "çĥŃçĪ±": 6100,
      "æĪĺæĸĹ": 6101,
      "ä¸ºæĤ¨æıĲä¾Ľ": 6102,
      "æķħéļľ": 6103,
      "çļĦå¤§å°ı": 6104,
      "æĿ°åħĭ": 6105,
      "ç¢±": 6106,
      "ä½©": 6107,
      "åħļ": 6108,
      "ä¿¡å¿ĥ": 6109,
      "ä¿ĿæĬ¤çİ¯å¢ĥ": 6110,
      "æł¹æį®èĩªå·±çļĦ": 6111,
      "æŃ¥è¡Į": 6112,
      "å¹¶ç»Ļåĩº": 6113,
      "å½±åĥı": 6114,
      "å²Ĺä½į": 6115,
      "75": 6116,
      "plo": 6117,
      "é¡ºåĪ©": 6118,
      "è¿Ļæĺ¯åĽłä¸º": 6119,
      "åºĨç¥Ŀ": 6120,
      "èĬĤçľģ": 6121,
      "è¯ķè¯ķ": 6122,
      "åĸ»": 6123,
      "æĢİæł·çļĦ": 6124,
      "æĮº": 6125,
      "ä½ľå®¶": 6126,
      "ç»ĦæĪĲçļĦ": 6127,
      "åģļäºĨ": 6128,
      "æµģåĬ¨": 6129,
      "æİĴåºıç®Ĺæ³ķ": 6130,
      "èĮ¨": 6131,
      "çģ«æĺŁ": 6132,
      "æĲľç´¢å¼ķæĵİ": 6133,
      "æĻ¯è§Ĥ": 6134,
      "éľĢè¦ģä½¿çĶ¨": 6135,
      "æ²Ļåıĳ": 6136,
      "è°ĵ": 6137,
      "æľīäºĨ": 6138,
      "å¤§æķ°æį®": 6139,
      "ä¸¥éĩįçļĦ": 6140,
      "å¨ľ": 6141,
      "æıĲåĩºäºĨ": 6142,
      "çº¿ä¸Ĭ": 6143,
      "HT": 6144,
      "é½¿": 6145,
      "äº¤å¾Ģ": 6146,
      "æĵįä½ľç³»ç»Ł": 6147,
      "Emma": 6148,
      "cm": 6149,
      "çĽ¸çŃī": 6150,
      "âĦĥ": 6151,
      "çĶµåŃĲåķĨåĬ¡": 6152,
      "èĤļåŃĲ": 6153,
      "Ġhas": 6154,
      "æ¯ıå¹´": 6155,
      "åķĨåºĹ": 6156,
      "åĪĳ": 6157,
      "æ¡¶": 6158,
      "åĪĨæķ°": 6159,
      "ition": 6160,
      "Ġrandom": 6161,
      "Ġä½ł": 6162,
      "æľºæ¢°": 6163,
      "ç»ĻäºĨ": 6164,
      "èº«è¾¹": 6165,
      "å¨ĺ": 6166,
      "åĲ¯åĬ¨": 6167,
      "æ·±åĪ»çļĦ": 6168,
      "æ¤įçī©çļĦ": 6169,
      "æ³¨åĨĮ": 6170,
      "åĪĹä¸¾": 6171,
      "åĪ°åĮ»éĻ¢": 6172,
      "ç«ŀäºīåĬĽ": 6173,
      "åı«åģļ": 6174,
      "åĴĮé«ĺ": 6175,
      "å¤«å¦»": 6176,
      "åĲĦèĩª": 6177,
      "ä½Ĩæĺ¯æĪĳ": 6178,
      "è®°å¾Ĺ": 6179,
      "åħħçĶµ": 6180,
      "words": 6181,
      "å¤§å¤§": 6182,
      "çĽ¸å½ĵ": 6183,
      "ish": 6184,
      "è´¢å¯Į": 6185,
      "åĵĪåĪ©": 6186,
      "åĲĪæĪĲ": 6187,
      "åĴĮåģ¥åº·": 6188,
      "èĥĸ": 6189,
      "Ġne": 6190,
      "iP": 6191,
      "å¾¡": 6192,
      "åįµç®¡": 6193,
      "åħ¶ä¸ŃåĮħæĭ¬": 6194,
      "ĠéĤ£": 6195,
      "åħ¨éĥ¨": 6196,
      "æ»ŀ": 6197,
      "åģıè§ģ": 6198,
      "çļĦç¨³": 6199,
      "æ³ķéĻ¢": 6200,
      "åģ·": 6201,
      "çĩķ": 6202,
      "æĺİäºĨ": 6203,
      "Ġé¦ĸåħĪ": 6204,
      "èĥ¡èĲĿåįľ": 6205,
      "åı¯ä»¥çĶ¨æĿ¥": 6206,
      "ï¼ļãĢĬ": 6207,
      "quest": 6208,
      "æ³½": 6209,
      "æ¯ıä¸Ģ": 6210,
      "éħ¶": 6211,
      "åľ°åĽ¾": 6212,
      "Mike": 6213,
      "éľĢè¦ģçļĦ": 6214,
      "å¼Ĺ": 6215,
      "æº¯": 6216,
      "Ġï¼Į": 6217,
      "è¾ĵåįµç®¡": 6218,
      "ç¨³å®ļæĢ§": 6219,
      "è´Łæĭħ": 6220,
      "ä¸ĭéĿ¢æĺ¯ä¸Ģä¸ª": 6221,
      "æ¶¨": 6222,
      "æįŁå®³": 6223,
      "è·¯ä¸Ĭ": 6224,
      "çİ¯èĬĤ": 6225,
      "åĮĸå¦Ĩ": 6226,
      "çĺ¦": 6227,
      "èĦĬ": 6228,
      "ĠAI": 6229,
      "è¿ĻäºĽä¿¡æģ¯": 6230,
      "Th": 6231,
      "åĽŀçŃĶè¿Ļä¸ªéĹ®é¢ĺ": 6232,
      "æıĲä¾ĽæĽ´å¥½çļĦ": 6233,
      "åľ°ä¸Ĭ": 6234,
      "å¯¹çĹĩæ²»çĸĹ": 6235,
      "Hello": 6236,
      "åĽŀå¤į": 6237,
      "çĭĤ": 6238,
      "entence": 6239,
      "åĴĮå¤ĦçĲĨ": 6240,
      "åħ·ä½ĵæĥħåĨµ": 6241,
      "ï¼ħ": 6242,
      "ä¸»äººåħ¬": 6243,
      "ç»³": 6244,
      "çļĦéķ¿åº¦": 6245,
      "Ġcur": 6246,
      "æĺİäº®": 6247,
      "æĿ¨": 6248,
      "è¿Ľç¨ĭ": 6249,
      "åĮºåĿĹéĵ¾æĬĢæľ¯": 6250,
      "æ·±è¿ľçļĦå½±åĵį": 6251,
      "ä¿ĥéĶĢ": 6252,
      "åĽŀäºĭ": 6253,
      "å¤ļå¹´": 6254,
      "è¯ĬæĸŃåĴĮæ²»çĸĹ": 6255,
      "ä¸Ģæľ¬": 6256,
      "åıĭå¥½": 6257,
      "æĺ¯ä¸ª": 6258,
      "éĩįåĨĻ": 6259,
      "ä»½é¢Ŀ": 6260,
      "å¿ĥä¸Ń": 6261,
      "çĭĹçĭĹ": 6262,
      "cl": 6263,
      "åħ¨èº«": 6264,
      "åī¯ä½ľçĶ¨": 6265,
      "æĸĲæ³¢éĤ£å¥ĳæķ°åĪĹ": 6266,
      "åĳķåĲĲ": 6267,
      "ä¼ļåľ¨": 6268,
      "ä¹Łåı¯èĥ½": 6269,
      "æĪĳè¦ģ": 6270,
      "çĶŁåĬ¨": 6271,
      "åĩłå¹´": 6272,
      "åĪĨæķ£": 6273,
      "äº¤åıī": 6274,
      "èĩªèº«çļĦ": 6275,
      "èīºæľ¯åĵģ": 6276,
      "ä¼ĺç¼ºçĤ¹": 6277,
      "åĪĨåī²": 6278,
      "åİŁæĿ¥": 6279,
      "çĲĨè´¢": 6280,
      "åħĥç´łçļĦ": 6281,
      "å¤§ä¾¿": 6282,
      "çĶ¨æĪ·è¾ĵåħ¥": 6283,
      "æµ·å¹³éĿ¢": 6284,
      "çļĦçĪ±æĥħ": 6285,
      "è½´": 6286,
      "å½ĵæĪĳä»¬": 6287,
      "ä¹³èħº": 6288,
      "åľ¨æĪĳ": 6289,
      "ä½łä»¬çļĦ": 6290,
      "ä¼łæŁĵ": 6291,
      "å®ŀéĻħæĥħåĨµ": 6292,
      "æĿĥçĽĬ": 6293,
      "é¡¹çĽ®çļĦ": 6294,
      "ä¹Łèĥ½": 6295,
      "åĴĮå¹³": 6296,
      "Ġinput": 6297,
      "æĦŁæ¿Ģ": 6298,
      "åĲ«éĩı": 6299,
      "ich": 6300,
      "äººæĢ§": 6301,
      "ãģ": 6302,
      "33": 6303,
      "èĢĮä¸į": 6304,
      "æĪĳæŃ£åľ¨": 6305,
      "è®°ä½ı": 6306,
      "éĽĨåĲĪ": 6307,
      "æīģ": 6308,
      "åĽŀå®¶": 6309,
      "è§ģåĪ°": 6310,
      "å¹¶å¯¹": 6311,
      "ask": 6312,
      "è¿ģ": 6313,
      "é¸Łç±»": 6314,
      ")ï¼Į": 6315,
      "æĪĳä»¬è¿ĺ": 6316,
      "æŁ±": 6317,
      "å¿į": 6318,
      "åĵŃ": 6319,
      "å¯ĨåĪĩ": 6320,
      "åĳ¨æľ«": 6321,
      "ov": 6322,
      "ä¸ĢæĿ¯": 6323,
      "EO": 6324,
      "ood": 6325,
      "èĮİ": 6326,
      "æµĭè¯ķéĽĨ": 6327,
      "åĪĽéĢłåĩº": 6328,
      "å©Ĩ": 6329,
      "å¼ķåħ¥": 6330,
      "æıĲä¾ĽæĽ´": 6331,
      "å®ĥåľ¨": 6332,
      "éĹ®é¢ĺåĴĮ": 6333,
      "æľīäºº": 6334,
      "arg": 6335,
      "åĪĽæĸ°åĴĮ": 6336,
      "ç¡®è¯Ĭ": 6337,
      "åıįæĢĿ": 6338,
      "éŁ©": 6339,
      "ould": 6340,
      "åĽ½åĨħ": 6341,
      "åĩĨå¤ĩå¥½": 6342,
      "è¶ĬæĿ¥è¶Ĭå¤ļ": 6343,
      "Â°": 6344,
      "ä¿¡æģ¯åĴĮ": 6345,
      "èģĮè´£": 6346,
      "Ġcol": 6347,
      "è®¾è®¡å¸Ī": 6348,
      "è¡Ģç³ĸ": 6349,
      "æĺ¯æĪĳ": 6350,
      "åĩıèĤ¥": 6351,
      "åī©ä½Ļ": 6352,
      "è§£æŀĲ": 6353,
      "åĽ¾ä¹¦": 6354,
      "èµ¶": 6355,
      "è®²è§£": 6356,
      "è°ĥçłĶ": 6357,
      "ä½ĵåĨħ": 6358,
      "æ³Ħéľ²": 6359,
      "è¿ĩçļĦ": 6360,
      "éĥ½éľĢè¦ģ": 6361,
      "ç½ĳä¸Ĭ": 6362,
      "åĪĽæĸ°çļĦ": 6363,
      "ãĢĭãĢģ": 6364,
      "è´¸æĺĵ": 6365,
      "é»ĳæļĹ": 6366,
      "å®ĥä»¬åľ¨": 6367,
      "éŁ§": 6368,
      "åľ°äº§": 6369,
      "å°±åĮ»": 6370,
      "å·¥ä½ľçļĦ": 6371,
      "åĲİæŀľ": 6372,
      "Ġ%": 6373,
      "çİ°ä»£ç¤¾ä¼ļ": 6374,
      "èĩ³åħ³éĩįè¦ģçļĦ": 6375,
      "éĹ¹": 6376,
      "ç§¯ç´¯": 6377,
      "ĊĠĠĠĠĊĠĠĠ": 6378,
      "APP": 6379,
      "ãĢĭãĢĤ": 6380,
      "äººæīį": 6381,
      "æľºéģĩ": 6382,
      "åıĳåĩº": 6383,
      "çĭ®": 6384,
      "æľĪä»½": 6385,
      "ä½ĵè´¨": 6386,
      "ä¸¾è¡Į": 6387,
      "äººåĴĮ": 6388,
      "MOSS": 6389,
      "æĢĴ": 6390,
      "ject": 6391,
      "ç»ĺçĶ»": 6392,
      "å¿ĹæĦ¿èĢħ": 6393,
      "alcul": 6394,
      "èĬĴ": 6395,
      "å¤ľæĻļ": 6396,
      "çļĦä¸ĸçķĮ": 6397,
      "æģĲæĥ§": 6398,
      "ä½ĵç§¯": 6399,
      "æĭĴ": 6400,
      "è¿Ľè¡ĮæİĴåºı": 6401,
      "ä¹°äºĨ": 6402,
      "åĩ¯": 6403,
      "pon": 6404,
      "åĨĻä¸Ģç¯ĩåħ³äºİ": 6405,
      "èµĦæºĲçļĦ": 6406,
      "çļĦè¿ĲåĬ¨": 6407,
      "vent": 6408,
      "32": 6409,
      "åľ°çĲĨ": 6410,
      "CT": 6411,
      "Pythonåĩ½æķ°": 6412,
      "é©±åĬ¨": 6413,
      "çĽĲåĴĮ": 6414,
      "class": 6415,
      "ç¿»çĤĴ": 6416,
      "æĲħæĭĮåĿĩåĮĢ": 6417,
      "read": 6418,
      "55": 6419,
      "åıįè½¬": 6420,
      "æĴ°åĨĻ": 6421,
      "åİ¿": 6422,
      "æķĪåºĶ": 6423,
      "åĴĮåĪĽæĸ°": 6424,
      "åıĳçĹħ": 6425,
      "ra": 6426,
      "å¹¶éĢļè¿ĩ": 6427,
      "çļĦåıĳçĶŁ": 6428,
      "å¥³çĶŁ": 6429,
      "å°ıç»Ħ": 6430,
      "éŃħåĬĽ": 6431,
      "å¯¼èĪª": 6432,
      "çŃīå¤ļä¸ª": 6433,
      "åĩłçĤ¹": 6434,
      "çļĦçģµ": 6435,
      "ç¬Ķè®°": 6436,
      "åĳ½åĲį": 6437,
      "åı¯çĶ¨äºİ": 6438,
      "æĥħæĦŁåĴĮ": 6439,
      "çļĦç¨³å®ļ": 6440,
      "é»Ľ": 6441,
      "é£ĺ": 6442,
      "Ġ[]": 6443,
      "åľ¨æŁĲäºĽ": 6444,
      "çī©èģĶç½ĳ": 6445,
      "ä½łæľī": 6446,
      "éħįæĸĻ": 6447,
      "ä¸ĭåİ»": 6448,
      "ï¼Į`": 6449,
      "è¿Ļä¸ªåı¥åŃĲ": 6450,
      "çļĦæĸĩåĮĸ": 6451,
      "éĽ¾": 6452,
      "åĮĸçĸĹ": 6453,
      "çĶµåķĨ": 6454,
      "Ġqu": 6455,
      "æĸ°æĬĢæľ¯": 6456,
      "åĴĮçİ¯å¢ĥ": 6457,
      "åĲĽ": 6458,
      "Ġname": 6459,
      "åı¯çĶ¨": 6460,
      "ire": 6461,
      "ä¸ĵéĹ¨": 6462,
      "æĸĩçĮ®": 6463,
      "çļĦç³ĸæŀľ": 6464,
      "èģļç±»": 6465,
      "æľ¬åľ°": 6466,
      "æłĸ": 6467,
      "NLP": 6468,
      "çļĦå¤©æ°Ķ": 6469,
      "åĴĮç»´æĬ¤": 6470,
      "æĺ¯äººç±»": 6471,
      "\"ï¼Į": 6472,
      "éľī": 6473,
      "è°¨æħİ": 6474,
      "çĽĳçĿ£åŃ¦ä¹ł": 6475,
      "èĤīç±»": 6476,
      "çļĦè¯¦ç»Ĩ": 6477,
      "ç»´ä¿®": 6478,
      "æ°Ķæģ¯": 6479,
      "éĿ©åĳ½": 6480,
      "åĬłå·¥": 6481,
      "æĺ¯åĲ¦ä¸º": 6482,
      "èħ¹çĹĽ": 6483,
      "éĿĻèĦī": 6484,
      "æĸĩæľ¬è¿Ľè¡Į": 6485,
      "2019": 6486,
      "ç¡¬ä»¶": 6487,
      "çĤī": 6488,
      "æıĲäº¤": 6489,
      "æıŃç¤º": 6490,
      "ild": 6491,
      "åĨ¬åŃ£": 6492,
      "çĨĬçĮ«": 6493,
      "åĭķ": 6494,
      "é¢Ĺç²Ĵ": 6495,
      "ä¼ĺåħĪçº§": 6496,
      "æľ¯åĲİ": 6497,
      "å¹´ä»½": 6498,
      "æĶ¯éĵħç¬Ķ": 6499,
      "å»ºè®®åĲĹ": 6500,
      "éĩĩçĶ¨äºĨ": 6501,
      "SO": 6502,
      "çļĦçī¹å¾ģ": 6503,
      "27": 6504,
      "ãĢĤï¼Į": 6505,
      "å·¾": 6506,
      "åĳĪçİ°åĩº": 6507,
      "ç§ĳæĬĢçļĦ": 6508,
      "åĽ¾åĥıè¯ĨåĪ«": 6509,
      "èĬĿå£«": 6510,
      "åĬ³åĬ¨": 6511,
      "è¿Ļåı¯èĥ½": 6512,
      "æ°ĳæĹı": 6513,
      "åıĹä¼¤": 6514,
      "æİ¢è®¨äºĨ": 6515,
      "åľ¨ä¸ŃåĽ½": 6516,
      "çĶµå½±çļĦ": 6517,
      "æ¦Ĥè¿°": 6518,
      "::": 6519,
      "æĥħå¢ĥ": 6520,
      "ĠCh": 6521,
      "random": 6522,
      "æĶ¯æĴĳ": 6523,
      "Web": 6524,
      "æī¿åıĹ": 6525,
      "å¤´èĦĳ": 6526,
      "ĠåĬłåħ¥": 6527,
      "äºĨè§£ä¸Ģä¸ĭ": 6528,
      "çļĦçĮ": 6529,
      "æĺ¯çĶ±äºİ": 6530,
      "é¬": 6531,
      "æĢĿèĢĥåĴĮ": 6532,
      "è£ħå¤ĩ": 6533,
      "çļĦéľĢæ±ĤåĴĮ": 6534,
      "Ġdo": 6535,
      "æĽ´æ·±åħ¥": 6536,
      "è®Ńç»ĥæ¨¡åŀĭ": 6537,
      "é¥®çĶ¨": 6538,
      "äººå·¥æĻºèĥ½åĴĮ": 6539,
      "æĪĸç¼º": 6540,
      "å¤ªå¤ļ": 6541,
      "æĳ¸": 6542,
      "åľºåľ°": 6543,
      "ç¨¿": 6544,
      "%ï¼Į": 6545,
      "Con": 6546,
      "function": 6547,
      "åĩłä¹İ": 6548,
      "ä¸Ģæ®µæĹ¶éĹ´": 6549,
      "éĨī": 6550,
      "åĸĦäºİ": 6551,
      "ner": 6552,
      "æµĵéĥģ": 6553,
      "ä¿Ŀåħ»": 6554,
      "æııè¿°äºĨ": 6555,
      "æĪĲåĬŁåľ°": 6556,
      "å¹¶ä¸İ": 6557,
      "åĬŀåħ¬å®¤": 6558,
      "ĠéĢīæĭ©": 6559,
      "åıĳçİ°äºĨ": 6560,
      "åĽ¾æ¡Ī": 6561,
      "ä¼į": 6562,
      "ener": 6563,
      "æĸĩæľ¬åĪĨç±»": 6564,
      "ove": 6565,
      "æ´»åĬĽ": 6566,
      "è£Ļ": 6567,
      "199": 6568,
      "Lily": 6569,
      "ç´§å¯Ĩ": 6570,
      "26": 6571,
      "åħ³éĶ®ä¿¡æģ¯": 6572,
      "Ġso": 6573,
      "åľ¨è¿ĩåİ»": 6574,
      "Ġelif": 6575,
      "åĪĨæĶ¯": 6576,
      "åĳ½ä»¤": 6577,
      "æŃ¤æĹ¶": 6578,
      "åĴĮå°ı": 6579,
      "ise": 6580,
      "æ¸ħæĸ°": 6581,
      "ä¸ĢäºĽåħ³äºİ": 6582,
      "Ġtime": 6583,
      "æĢ»ç»Ł": 6584,
      "åĮĸçŁ³": 6585,
      "çļĦåĩ½æķ°": 6586,
      "çĽ¸åºĶ": 6587,
      "è¯´æĺ¯": 6588,
      "ä¼ı": 6589,
      "çļĦæ¦Ĥå¿µ": 6590,
      "çĥŃéĩı": 6591,
      "29": 6592,
      "å¤įåıĳ": 6593,
      "ä¸Ģåħ±æľī": 6594,
      "åĩĨç¡®æĢ§åĴĮ": 6595,
      "è¯»åıĸ": 6596,
      "value": 6597,
      "æĻļé¤Ĳ": 6598,
      "åĨħç½®": 6599,
      "æĬĳåĪ¶": 6600,
      "åº¦åģĩ": 6601,
      "ç²Ĺ": 6602,
      "duct": 6603,
      "åĴĮä¸ªäºº": 6604,
      "Ġä¿ĿæĮģ": 6605,
      "å»ºçŃĳçī©": 6606,
      "Ġpublic": 6607,
      "ng": 6608,
      "Ġwhile": 6609,
      "ä¹ŁéĿŀå¸¸": 6610,
      "çĶ²çĬ¶": 6611,
      "åľĨå½¢": 6612,
      "ä»İä»¥ä¸ĭ": 6613,
      "åįļå®¢": 6614,
      "å°Ĩåľ¨": 6615,
      "ä¸Ńå¤®": 6616,
      "åĽ¾å½¢": 6617,
      "è§£éĩĬä¸Ģä¸ĭ": 6618,
      "æĺİç¡®çļĦ": 6619,
      "ä¸įåĲĮç±»åŀĭçļĦ": 6620,
      "ä½Ĩå®ĥ": 6621,
      "æ³Ĭ": 6622,
      "è¿Ļä½¿å¾Ĺ": 6623,
      "æĸ°åħ´": 6624,
      "çĽ²": 6625,
      "åĹ¨": 6626,
      "æłĩæ³¨": 6627,
      "è¿Ļæĺ¯ä¸Ģç§į": 6628,
      "è¿Ľåº¦": 6629,
      "ates": 6630,
      "æİĴåĲį": 6631,
      "onac": 6632,
      "åľ¨è¿Ļç§įæĥħåĨµä¸ĭ": 6633,
      "çĶ¨æĪ·åı¯èĥ½": 6634,
      "ä¸ĸçķĮçļĦ": 6635,
      "æ¼Ķå¥ı": 6636,
      "æĿĨ": 6637,
      "Ġchar": 6638,
      "çģµæĦŁ": 6639,
      "ï½": 6640,
      "èĢį": 6641,
      "çļĦç²¾ç¥ŀ": 6642,
      "å¾·åĽ½": 6643,
      "æķĻç»ĥ": 6644,
      "æĪĲä¸ºä¸Ģä¸ª": 6645,
      "èħĬ": 6646,
      "ãĢĭï¼Į": 6647,
      "è¿Ī": 6648,
      "ĠãĢĬ": 6649,
      "æĽ´åħ·": 6650,
      "onacci": 6651,
      "\">": 6652,
      "åı¯æĮģç»ŃæĢ§": 6653,
      "æ·Ģ": 6654,
      "ä½ľä¸ļ": 6655,
      "ibonacci": 6656,
      "ays": 6657,
      "Ġdate": 6658,
      "ÃĹ": 6659,
      "æ²Ļæ»©": 6660,
      "ä¾ĭåŃĲä¸Ń": 6661,
      "è¾ĥå¤§": 6662,
      "å«Įçĸĳ": 6663,
      "è¯»ä¹¦": 6664,
      "å¯ĵ": 6665,
      "å®ŀä¾ĭ": 6666,
      "éĢĤçĶ¨": 6667,
      "çļĦçĸ¾çĹħ": 6668,
      "åĪ¶å®ļä¸Ģä¸ª": 6669,
      "å°±èĥ½": 6670,
      "String": 6671,
      "éĩİçĶŁåĬ¨çī©": 6672,
      "æİĴéĻ¤": 6673,
      "ä»İæĸĩç«ł": 6674,
      "ä»¿ä½Ľ": 6675,
      "çĶ·åŃĲ": 6676,
      "æĪĳä»¬å¿ħé¡»": 6677,
      "åĩºåıĳ": 6678,
      "åı¬": 6679,
      "çĦ¶åĲİå°Ĩ": 6680,
      "è®©çĶ¨æĪ·": 6681,
      "å°ıåĿĹ": 6682,
      "åµ": 6683,
      "å¯º": 6684,
      "æıĲé«ĺèĩªå·±çļĦ": 6685,
      "å¯¼æ¼Ķ": 6686,
      "ä¾£": 6687,
      "è®¨è®ºäºĨ": 6688,
      "æ¨ª": 6689,
      "ä»¥æŃ¤": 6690,
      "èĩªçĦ¶è¯Ńè¨Ģå¤ĦçĲĨæĬĢæľ¯": 6691,
      "Sarah": 6692,
      "è½»æĿ¾åľ°": 6693,
      "æ§": 6694,
      "åķ¦": 6695,
      "åĵĪå¸Į": 6696,
      "Ġout": 6697,
      "çİ°æľī": 6698,
      "åı¯ä»¥éĩĩçĶ¨": 6699,
      "èĤĽ": 6700,
      "åı¯ä»¥å¸®åĬ©äººä»¬": 6701,
      "æ¯ģ": 6702,
      "éĿ¢åĽ¢": 6703,
      "æ¯Ķå¦Ĥè¯´": 6704,
      "è§Ĥå¿µ": 6705,
      "æĿ¥ç¡®å®ļ": 6706,
      "Ġnp": 6707,
      "æ²³æµģ": 6708,
      "åı¯ä»¥å°Ŀè¯ķ": 6709,
      "éł": 6710,
      "çĶ²çĬ¶èħº": 6711,
      "les": 6712,
      "ä¸ĢèĪ¬æĿ¥è¯´": 6713,
      "èĢģäºº": 6714,
      "éľĢè¦ģå¯¹": 6715,
      "çļĦæīĢæľī": 6716,
      "è¾ŀ": 6717,
      "æĭħä»»": 6718,
      "åĴĮä½ł": 6719,
      "ä¸Ĭæľī": 6720,
      "çļĦå¸Ĥåľº": 6721,
      "çļĦå½¢å¼ı": 6722,
      "è¿ĽåĮĸ": 6723,
      "éĩĩåıĸè¡ĮåĬ¨": 6724,
      "çļĦæĦıæĢĿ": 6725,
      "æĺ¾å¾Ĺ": 6726,
      "æľīæ°§è¿ĲåĬ¨": 6727,
      "æķĻèĤ²åĴĮ": 6728,
      "æĢ¥æĢ§": 6729,
      "èģļä¼ļ": 6730,
      "ä»¥åħ¶": 6731,
      "å¹¿æ³ĽåºĶçĶ¨": 6732,
      "è¿ĽèĢĮ": 6733,
      "åĻ¨å®ĺ": 6734,
      "æ£ī": 6735,
      "ä¸ļç»©": 6736,
      "å®īåħ¨çļĦ": 6737,
      "éĢĤå®ľ": 6738,
      "çªģçł´": 6739,
      "æľīæīĢä¸įåĲĮ": 6740,
      "è¾©": 6741,
      "å°ıåĦ¿": 6742,
      "åŃĻ": 6743,
      "ä¾Ŀæį®": 6744,
      "çĿ¡è§ī": 6745,
      "ox": 6746,
      "Ġget": 6747,
      "å±ķç¤ºäºĨ": 6748,
      "åĸĺ": 6749,
      "è¯Ńä¹ī": 6750,
      "é²¸": 6751,
      "éĤª": 6752,
      "çĶ·çĶŁ": 6753,
      "æľ´": 6754,
      "ä¸Ģéĥ¨": 6755,
      "ä»İä¸Ń": 6756,
      "æĢİä¹ĪåĽŀäºĭ": 6757,
      "æīĢèĩ´": 6758,
      "ä½ľä¸ºåıĤæķ°": 6759,
      "ä¸ºæĪĳä»¬": 6760,
      "åĬłéĩį": 6761,
      "è¯·è¾ĵåħ¥": 6762,
      "æĺĤ": 6763,
      "å¸Ń": 6764,
      "æķ¸": 6765,
      "ä¸¾åĬŀ": 6766,
      "åĴĮå¯¹": 6767,
      "åħ¨éĿ¢çļĦ": 6768,
      "çĶŁæ¶¯": 6769,
      "æĺĨ": 6770,
      "jo": 6771,
      "ä»İå°ı": 6772,
      "æ´»è¡Ģ": 6773,
      "Ġconst": 6774,
      "åı¯ä»¥å¾ĹåĪ°": 6775,
      "åľ¨éĢīæĭ©": 6776,
      "å¥¶æ²¹": 6777,
      "éľį": 6778,
      "åħ³èĬĤ": 6779,
      "ctor": 6780,
      "çĶµåŃĲéĤ®ä»¶åľ°åĿĢ": 6781,
      "æĹ±": 6782,
      "éĿ¢åĲĳ": 6783,
      "Ġ:": 6784,
      "67": 6785,
      "ä¸įèĪĴæľį": 6786,
      "Mary": 6787,
      "å®¢äºº": 6788,
      "è®Ńç»ĥéĽĨ": 6789,
      "ä¼¦æķ¦": 6790,
      "å½±çīĩ": 6791,
      "åĪĹè¡¨ä¸ŃçļĦ": 6792,
      "éĵĥ": 6793,
      "è¿Ļç§įæĸ¹æ³ķ": 6794,
      "æĪ¿åľ°äº§": 6795,
      "æµ·é²ľ": 6796,
      "æ·ĭå·´": 6797,
      "ç¥ŀç»ıåħĥ": 6798,
      "ç»Ŀå¯¹": 6799,
      "å¯¼èĩ´äºĨ": 6800,
      "ä¹ĭä¸Ń": 6801,
      "æĪĳä¸į": 6802,
      "æĨ": 6803,
      "ä½¿çĶ¨Python": 6804,
      "å¤§éĥ¨åĪĨ": 6805,
      "éĢłæĪĲäºĨ": 6806,
      "çŁŃæĸĩ": 6807,
      "æ°Ķè¡Ģ": 6808,
      "åĴĮå¸Ĥåľº": 6809,
      "ãĢĭãĢģãĢĬ": 6810,
      "èķ´": 6811,
      "æ¤İ": 6812,
      "oid": 6813,
      "æĪĳçŁ¥éģĵ": 6814,
      "æĮ«æĬĺ": 6815,
      "èµĶ": 6816,
      "åħĦ": 6817,
      "åħ´è¶£çĪ±å¥½": 6818,
      "è¿ĽåĪ¶": 6819,
      "åħ¸åŀĭ": 6820,
      "æĬ¢": 6821,
      "åİ»å¹´": 6822,
      "çĸ®": 6823,
      "31": 6824,
      "çĹĽèĭ¦": 6825,
      "const": 6826,
      "åĳĢ": 6827,
      "äººåĬĽ": 6828,
      "æľīæīĢå¸®åĬ©": 6829,
      "åħ»æĪĲ": 6830,
      "ä¸įåı¯æĪĸç¼º": 6831,
      "èŀº": 6832,
      "çĲĥéĺŁ": 6833,
      "è´¯": 6834,
      "äººå·¥æĻºèĥ½çļĦåıĳå±ķ": 6835,
      "ä½įæķ°": 6836,
      "è¿Ļåº§": 6837,
      "éĻĮ": 6838,
      "çĭ¼": 6839,
      "ç¥ĸ": 6840,
      "arget": 6841,
      "çĵ·": 6842,
      "éĿŀå¸¸éĢĤåĲĪ": 6843,
      "å¯¹æĤ¨": 6844,
      "æľīä¸Ģå®ļçļĦ": 6845,
      "æĪĳä»¬è¦ģ": 6846,
      "oice": 6847,
      "model": 6848,
      "äº¤éĢļæĭ¥åłµ": 6849,
      "çī¹æ®ĬçļĦ": 6850,
      "èī³": 6851,
      "cre": 6852,
      "è¿Ļä½į": 6853,
      "è¿Ļæł·æīįèĥ½": 6854,
      "æĬĢæľ¯çļĦåıĳå±ķ": 6855,
      "çĹħåıĳ": 6856,
      "ok": 6857,
      "æķ°æį®ä¸Ń": 6858,
      "ç©´": 6859,
      "åĬłåī§": 6860,
      "è¯·å¸®æĪĳ": 6861,
      "æİ¥ç§į": 6862,
      "Ġworld": 6863,
      "æ¼ĶåĮĸ": 6864,
      "ally": 6865,
      "å¼Ģå¿ĥ": 6866,
      "é¤Ĳé¦Ĩ": 6867,
      "äº«çĶ¨": 6868,
      "é¥¼å¹²": 6869,
      "æģ°å½ĵ": 6870,
      "çĶŁçī©åŃ¦": 6871,
      "length": 6872,
      "åħ±åĲĮåĬªåĬĽ": 6873,
      "è°ľ": 6874,
      "ä¸Ģä½įå¹´è½»çļĦ": 6875,
      "éļĲèĹı": 6876,
      "æıĲé«ĺäºĨ": 6877,
      "ç¼ĵæħ¢": 6878,
      "çİ¯ä¿ĿæĦıè¯Ĩ": 6879,
      "è¢«è§Ĩä¸º": 6880,
      "å¾Īéĩįè¦ģ": 6881,
      "æĤ¨åı¯ä»¥ä½¿çĶ¨": 6882,
      "èħ¹éĥ¨": 6883,
      "åŃĺåľ¨ä¸ĢäºĽ": 6884,
      "æ¸¸æĪıä¸Ń": 6885,
      "åĩºçīĪ": 6886,
      "æľĢå¤ļ": 6887,
      "own": 6888,
      "æ²¸": 6889,
      "åĪºæ¿ĢæĢ§": 6890,
      "æĤ£æľī": 6891,
      "æ¼Ĥäº®": 6892,
      "é¢Ħè®¡": 6893,
      "ç¼Ŀ": 6894,
      "åĩıåİ»": 6895,
      "åĽŀçŃĶä»¥ä¸ĭéĹ®é¢ĺ": 6896,
      "çļĦæĬķèµĦ": 6897,
      "Ġ19": 6898,
      "éļ¾é¢ĺ": 6899,
      "å¿ĺè®°": 6900,
      "æĪĳæ²¡æľī": 6901,
      "Ġclass": 6902,
      "Ġå®ļæľŁ": 6903,
      "çİ©èĢį": 6904,
      "å¥¶éħª": 6905,
      "ç¾İè§Ĥ": 6906,
      "å¸¸çĶ¨": 6907,
      "èĺĳ": 6908,
      "éĢ²": 6909,
      "èľĤèľľ": 6910,
      "æĤ¨åľ¨": 6911,
      "åı¥åŃĲä¸Ń": 6912,
      "èģĮä¸ļåıĳå±ķ": 6913,
      "ç²®": 6914,
      "åľ¨å®¶éĩĮ": 6915,
      "æĭįæĳĦ": 6916,
      "æĬ±æŃī": 6917,
      "find": 6918,
      "Ġstring": 6919,
      "èº«é«ĺ": 6920,
      "èĶ¬èıľåĴĮ": 6921,
      "ä¸įä»ħä»ħæĺ¯": 6922,
      "èĤĮèĤ¤": 6923,
      "ä»¥åĩıå°ĳ": 6924,
      "åħ¶å®ĥ": 6925,
      "Ġâ": 6926,
      "ç¬¬åĽĽ": 6927,
      "èŀįåħ¥": 6928,
      "æ¢ģ": 6929,
      "æİ¨æĸŃ": 6930,
      "çĻ»å½ķ": 6931,
      "ä¾ł": 6932,
      "åħ½": 6933,
      "éħµ": 6934,
      "root": 6935,
      "æ°¨": 6936,
      "å½ĵä»£": 6937,
      "éĿŀæ´²": 6938,
      "æīĵç®Ĺ": 6939,
      "æĿĲæĸĻåĴĮ": 6940,
      "ç®Ń": 6941,
      "åİĨç¨ĭ": 6942,
      "='": 6943,
      "æĸ¹çļĦ": 6944,
      "ä¸Ģçīĩ": 6945,
      "æľīäºĽäºº": 6946,
      "å°½åĬĽ": 6947,
      "éĻªä¼´": 6948,
      "æµģè¡ĮçļĦ": 6949,
      "èĺĳèıĩ": 6950,
      "å¾Īå®¹æĺĵ": 6951,
      "éĽĩ": 6952,
      "çĬ¹": 6953,
      "åĲĳåīį": 6954,
      "çļĦæĳĺè¦ģ": 6955,
      "éĿ¢ä¸´çĿĢ": 6956,
      "ä»İäºĭ": 6957,
      "æĸ¹æ³ķåĴĮ": 6958,
      "Ġup": 6959,
      "ç±»ä¼¼äºİ": 6960,
      "ä¼Ĳ": 6961,
      "è¿½æº¯": 6962,
      "åıªéľĢè¦ģ": 6963,
      "åİī": 6964,
      "æĽ´å¥½åľ°ç®¡çĲĨ": 6965,
      "åıĳè¡¨": 6966,
      "åį·ç§¯": 6967,
      "ä¿ĿæĮģåģ¥åº·": 6968,
      "ç©Ĩ": 6969,
      "æįī": 6970,
      "é¢Ħè®¢": 6971,
      "è¿Ļä»½": 6972,
      "çº¢æ¥¼": 6973,
      "æĪĳçİ°åľ¨": 6974,
      "æ¯ıæĹ¥": 6975,
      "æĻ´": 6976,
      "æ¸¸æĪıçļĦ": 6977,
      "æľīä»»ä½ķ": 6978,
      "è§Ĥæµĭ": 6979,
      "åħ³æ³¨åĴĮ": 6980,
      "è®¡åĪĴåĴĮ": 6981,
      "æĪĳéĿŀå¸¸": 6982,
      "åĪĽéĢłä¸Ģä¸ª": 6983,
      "çĪ¸çĪ¸": 6984,
      "åıĳçĶŁäºĨ": 6985,
      "èĪį": 6986,
      "æ²»æĦĪ": 6987,
      "çªĥ": 6988,
      "å°ıå¿ĥ": 6989,
      "Ġfind": 6990,
      "å®¹åĻ¨": 6991,
      "æĬ½è±¡": 6992,
      "å®ļä¹īäºĨä¸Ģä¸ª": 6993,
      "åıĳçĥŃ": 6994,
      "æĹĭå¾ĭ": 6995,
      "æĸ°é²ľçļĦ": 6996,
      "åĵģçīĮå½¢è±¡": 6997,
      "ä½łè¯´": 6998,
      "æ¹¿åº¦": 6999,
      "çĶŁæĪĲä¸Ģä»½": 7000,
      "æģ¶å¿ĥ": 7001,
      "åģļçļĦ": 7002,
      "çĵ¦": 7003,
      "åĨ°ç®±": 7004,
      "ä¼Ĺå¤ļ": 7005,
      "åıĹåĪ°äºĨ": 7006,
      "å¿½è§Ĩ": 7007,
      "éĴ¥": 7008,
      "å¯ĴåĨ·": 7009,
      "ĠPro": 7010,
      "æĪĳä»¬å·²ç»ı": 7011,
      "ä¹Łè®¸": 7012,
      "æıĲåıĸåĩº": 7013,
      "è°·æŃĮ": 7014,
      "è¯±": 7015,
      "æĻĵ": 7016,
      "èĢĢ": 7017,
      "Ġæł¹æį®": 7018,
      "éĻ¶": 7019,
      "éĻ¤æ³ķ": 7020,
      "èį¡": 7021,
      "éĹ·": 7022,
      "ç¿ħ": 7023,
      "è´µçļĦ": 7024,
      "åıįå°Ħ": 7025,
      "col": 7026,
      "ä¸Ģéĥ¨åĪĨ": 7027,
      "å¼ķçĶ¨": 7028,
      "åĮĹæŀģ": 7029,
      "çŁ¿çī©è´¨": 7030,
      "è¶ħå¸Ĥ": 7031,
      "çĮ«åĴª": 7032,
      "æĹ¶éĹ´ç®¡çĲĨ": 7033,
      "äººä»¬å¯¹": 7034,
      "äº¤æµģåĴĮ": 7035,
      "åĿĽ": 7036,
      "åĬ¨çĶ»": 7037,
      "æĬĹçĶŁç´ł": 7038,
      "éĻĮçĶŁ": 7039,
      "æĪĲä¸Ģä¸ª": 7040,
      "çłĸ": 7041,
      "ç¦»åŃĲ": 7042,
      "æĤ¨å¯¹": 7043,
      "çļĦç¼ĸç¨ĭè¯Ńè¨Ģ": 7044,
      "åħ¬åı¸åľ¨": 7045,
      "èĸ¯": 7046,
      "é£İæł¼åĴĮ": 7047,
      "å®¢åİħ": 7048,
      "éĩįåĬĽ": 7049,
      "çļĦæĳĦåħ¥": 7050,
      "å¸ĤåľºçļĦ": 7051,
      "éŃĤ": 7052,
      "150": 7053,
      "ake": 7054,
      "ðŁ": 7055,
      "å½¢å®¹è¯į": 7056,
      "æłĪ": 7057,
      "Amy": 7058,
      "çĳ°": 7059,
      "çĶŁæ´»ä¸ŃçļĦ": 7060,
      "åģļåĪ°": 7061,
      "äººç±»æ´»åĬ¨": 7062,
      "åĬłè½½": 7063,
      "ç»ıåħ¸çļĦ": 7064,
      "æľīæĦıä¹ī": 7065,
      "API": 7066,
      "è¿ĺæ²¡æľī": 7067,
      "éĩıåŃĲåĬĽåŃ¦": 7068,
      "å®Įæķ´çļĦ": 7069,
      "ous": 7070,
      "æĥ³æ³ķåĴĮ": 7071,
      "åºĻ": 7072,
      "æĸ¯åĿ¦": 7073,
      "çļĦåĬĽéĩı": 7074,
      "Ex": 7075,
      "èĽĩ": 7076,
      "ä¹ĺä»¥": 7077,
      "åĬŁèĥ½åĴĮ": 7078,
      "ument": 7079,
      "æŁ¿": 7080,
      "åħĶåŃĲ": 7081,
      "ç»Ħä»¶": 7082,
      "æĿ¡æ¬¾": 7083,
      "è¿ĲåĬ¨åĳĺ": 7084,
      "ç©·": 7085,
      "åı¯ä»¥å¢ŀåĬł": 7086,
      "æıĲä¾ĽæĽ´åĬł": 7087,
      "å°ıçĭĹ": 7088,
      "ĠåŃ¦ä¹ł": 7089,
      "èįĴ": 7090,
      "åĲĳä¸Ĭ": 7091,
      "po": 7092,
      "æŃ£å¸¸çļĦ": 7093,
      "è´¨æķ°": 7094,
      "æııåĨĻ": 7095,
      "çº¢æ¥¼æ¢¦": 7096,
      "æ³ī": 7097,
      "åĶ®åĲİ": 7098,
      "çļĦç½ĳç»ľ": 7099,
      "å¿½çķ¥": 7100,
      "der": 7101,
      "åģ¶æķ°": 7102,
      "çĩĥçĥ§": 7103,
      "ä¸Ńåįİ": 7104,
      "èĢĮåľ¨": 7105,
      "æĪĳæĹłæ³ķ": 7106,
      "èĤĸ": 7107,
      "åĲĮä¸Ģ": 7108,
      "çļĦéĩįè¦ģç»ĦæĪĲéĥ¨åĪĨ": 7109,
      "æ¯ıä¸ªäººçļĦ": 7110,
      "æĹħç¨ĭ": 7111,
      "æł¹æį®ä»¥ä¸Ĭ": 7112,
      "èħ¾": 7113,
      "åĳ½è¿Ĳ": 7114,
      "lt": 7115,
      "è¿ĻäºĽæĬĢæľ¯": 7116,
      "è®¡ç®Ĺåĩº": 7117,
      "èĿ¶": 7118,
      "ven": 7119,
      "æĪĸèĢħæĺ¯": 7120,
      "learn": 7121,
      "48": 7122,
      "æĺİæĺ¾çļĦ": 7123,
      "çĶŁæĪĲä¸Ģç¯ĩ": 7124,
      "å¼ºçĥĪçļĦ": 7125,
      "æŀļ": 7126,
      "æĺĵæĩĤ": 7127,
      "åĴĮèµĦæºĲ": 7128,
      "ä½Ĩä¸į": 7129,
      "èĩªåĬ¨é©¾é©¶æ±½è½¦": 7130,
      "å¤±çľł": 7131,
      "åĽĬèĤ¿": 7132,
      "ä¸İä»ĸäºº": 7133,
      "è¿ĻäºĽæĸ¹æ³ķ": 7134,
      "å®ŀä¹ł": 7135,
      "ĠæľĢåĲİ": 7136,
      "çĥĺ": 7137,
      "èº«ä¸Ĭ": 7138,
      "åı¯èĥ½æľī": 7139,
      "æīĭå·¥": 7140,
      "size": 7141,
      "ï½ŀ": 7142,
      "èī²è°ĥ": 7143,
      "åĩ½æķ°çļĦ": 7144,
      "è¡¨è¾¾èĩªå·±çļĦ": 7145,
      "åıĳçĥ§": 7146,
      "é«ĺæ¸©": 7147,
      "å¤´æĻķ": 7148,
      "çı¾": 7149,
      "çİ¯ä¿ĿçļĦ": 7150,
      "çļĦéĢŁåº¦": 7151,
      "å¤º": 7152,
      "åı¯èĥ½ä¼ļå¯¹": 7153,
      "plit": 7154,
      "æµ·å¹³éĿ¢ä¸Ĭåįĩ": 7155,
      "div": 7156,
      "åĴĮç»ıæµİ": 7157,
      "çĪ¶äº²": 7158,
      "ĠĊ": 7159,
      "è¡Įä¸ļçļĦ": 7160,
      "ç§ĳæĬĢåħ¬åı¸": 7161,
      "çĻ¼": 7162,
      "åļ": 7163,
      "åįĵè¶Ĭ": 7164,
      "ä»¥åıĬå¦Ĥä½ķ": 7165,
      "left": 7166,
      "åľ¨è¿Ľè¡Į": 7167,
      "é±¼ç±»": 7168,
      "ç¼ĸåĨĻä¸Ģä»½": 7169,
      "äºļé©¬": 7170,
      "ĠæıĲé«ĺ": 7171,
      "err": 7172,
      "æľīå¤ļå°ĳ": 7173,
      "è¿Ļä¸¤": 7174,
      "ä¸ľäº¬": 7175,
      "çģ«å±±": 7176,
      "min": 7177,
      "atter": 7178,
      "å«©": 7179,
      "æĸĩèīº": 7180,
      "çļĦçħ": 7181,
      "æľīåĪ©äºİ": 7182,
      "çļĦä¸Ńèį¯": 7183,
      "å°ıå¼ł": 7184,
      "åį³å°Ĩ": 7185,
      "QL": 7186,
      "èĤłéģĵ": 7187,
      "çļĦèį¯çī©": 7188,
      "æ³¢çī¹": 7189,
      "å¡ĳéĢł": 7190,
      "æĶĢ": 7191,
      "æķĪçĽĬ": 7192,
      "Ġsk": 7193,
      "ä½Ĩä¹Ł": 7194,
      "çĲ³": 7195,
      "åĿĲåľ¨": 7196,
      "çĽ¸ä¼¼åº¦": 7197,
      "å¸¦çĿĢ": 7198,
      "ä¸ŃæĢ§": 7199,
      "äº²åŃĲ": 7200,
      "åĲĮæĹ¶ä¹Łåı¯ä»¥": 7201,
      "å¤§æ°Ķå±Ĥ": 7202,
      "è¶ĬæĿ¥è¶Ĭå¤ļçļĦ": 7203,
      "çļĦç±»åŀĭ": 7204,
      "æĴŃæĶ¾": 7205,
      "èĨĿ": 7206,
      "æµĩæ°´": 7207,
      "çľŁæĺ¯": 7208,
      "åĢ¡": 7209,
      "æłĸæģ¯": 7210,
      "æĺ¯å°Ĩ": 7211,
      "å½Ĵç±»ä¸º": 7212,
      "äºļé©¬éĢĬ": 7213,
      "æĤŁ": 7214,
      "Ġæ¨¡åŀĭ": 7215,
      "ç©ºè°ĥ": 7216,
      "åĮħåĲ«äºĨ": 7217,
      "éĢŁåº¦åĴĮ": 7218,
      "çļĦæ°ĽåĽ´": 7219,
      "çŃīæĸ¹éĿ¢çļĦ": 7220,
      "ç½Ĺé©¬": 7221,
      "åĸľçĪ±": 7222,
      "éļ¾å¿ĺ": 7223,
      "çºµ": 7224,
      "è¿ĻäºĽéĥ½æĺ¯": 7225,
      "å°±è¯Ĭ": 7226,
      "åĤ¨åŃĺ": 7227,
      "å¥½å¥ĩ": 7228,
      "çļĦçĭĹ": 7229,
      "å®¡æŁ¥": 7230,
      "å¸½": 7231,
      "åľŁè±Ĩ": 7232,
      "æĸ¹å¼ıåĴĮ": 7233,
      "æįŁåĿı": 7234,
      "ä¼łæī¿": 7235,
      "å¤ļåĸĿæ°´": 7236,
      "çłĶç©¶è¡¨æĺİ": 7237,
      "ec": 7238,
      "çĥŃéĹ¨": 7239,
      "ä»ĺåĩº": 7240,
      "ä¼łç»ŁæĸĩåĮĸ": 7241,
      "å®ĺæĸ¹": 7242,
      "æłĳæľ¨": 7243,
      "ä»¥æ»¡è¶³": 7244,
      "loat": 7245,
      "è¡Įä¸ºåĴĮ": 7246,
      "æĹ¥çĽĬ": 7247,
      "å±ĢéĻĲ": 7248,
      "è®©åŃ©åŃĲ": 7249,
      "ĠX": 7250,
      "ä½łæľĢè¿ĳ": 7251,
      "Google": 7252,
      "è¯¯å·®": 7253,
      "avas": 7254,
      "ä»£æĽ¿": 7255,
      "çļĦç³»": 7256,
      "äº§åĵģåĴĮæľįåĬ¡": 7257,
      "åºŁå¼ĥ": 7258,
      "çļĦç¾İå¥½": 7259,
      "ated": 7260,
      "ç®ĢåĮĸ": 7261,
      "å°±è¦ģ": 7262,
      "æİ¢æµĭ": 7263,
      "åįµå·¢": 7264,
      "åĮħå®¹": 7265,
      "åĲŀ": 7266,
      "å¸®åĬ©æĤ¨": 7267,
      "æĪĳä»¬åı¯ä»¥å°Ĩ": 7268,
      "ä»¥ä¾¿æĽ´å¥½åľ°": 7269,
      "æŃ£åľ¨å¯»æī¾": 7270,
      "åħ´è¶£åĴĮ": 7271,
      "****": 7272,
      "Ġæııè¿°": 7273,
      "è¯ķéªĮ": 7274,
      "å¸ĮèħĬ": 7275,
      "ä¹Łå°Ĩ": 7276,
      "Ġ\"\"\"": 7277,
      "ç»ıéªĮä¸°å¯ĮçļĦ": 7278,
      "å±±èĦī": 7279,
      "äº¦": 7280,
      "åĻ¨åĴĮ": 7281,
      "çħ®çĨŁ": 7282,
      "åħħè¶³çļĦ": 7283,
      "ä¼´æľī": 7284,
      "æ¢¨": 7285,
      "çĶĺèįī": 7286,
      "è¿ĺæľīåħ¶ä»ĸ": 7287,
      "GPT": 7288,
      "æ©ĺ": 7289,
      "par": 7290,
      "åį±æľº": 7291,
      "å¹¶åıĳ": 7292,
      "åĴĮæĶ¹è¿Ľ": 7293,
      "å¹´åīį": 7294,
      "ä¸ĭè½½": 7295,
      "åĽ°å¢ĥ": 7296,
      "è¡«": 7297,
      "èī°": 7298,
      "çģ«è½¦": 7299,
      "è¶ħè¶Ĭ": 7300,
      "Ġright": 7301,
      "é«ĺéĢŁ": 7302,
      "é¹ħ": 7303,
      "æĽ´å¿«åľ°": 7304,
      "å°ĳçļĦ": 7305,
      "ĠæĬĬ": 7306,
      "ä¸ĩåħĥ": 7307,
      "ific": 7308,
      "ç½ĳç»ľå®īåħ¨": 7309,
      "æ¼ıæ´ŀ": 7310,
      "2020": 7311,
      "åµĮ": 7312,
      "ä¸ĵä¸ļäººå£«": 7313,
      "å¯¹å¾ħ": 7314,
      "æĦŁåĪ°éĿŀå¸¸": 7315,
      "ä»İè¿Ļç¯ĩæĸĩç«ł": 7316,
      "ä¸ºçĶ¨æĪ·": 7317,
      "æĺŁç³»": 7318,
      "å¦¥": 7319,
      "å¿ĥèĦıçĹħ": 7320,
      "è¸ı": 7321,
      "éĿŀæ³ķ": 7322,
      "çĪ±å¥½èĢħ": 7323,
      "avascript": 7324,
      "è¯Ńæ°Ķ": 7325,
      "æĮĩéĴĪ": 7326,
      "åľĭ": 7327,
      "æħĪåĸĦ": 7328,
      "ä¿¡æģ¯çļĦ": 7329,
      "è¿Ľè¡Įè°ĥæķ´": 7330,
      "èĵĦ": 7331,
      "è¿Ĳç®Ĺç¬¦": 7332,
      "ä¸Ģåĳ¨": 7333,
      "any": 7334,
      "åı¯ä»¥å®ŀçİ°": 7335,
      "çľĭçĿĢ": 7336,
      "å®£å¸ĥ": 7337,
      "æģĭçĪ±": 7338,
      "ä¸¢": 7339,
      "\"ãĢĤ": 7340,
      "we": 7341,
      "==": 7342,
      "LE": 7343,
      "æŀ¶æŀĦ": 7344,
      "å¼ķäºº": 7345,
      "éĵľ": 7346,
      "åĲ¸å¼ķåĬĽ": 7347,
      "è¾ĥé«ĺçļĦ": 7348,
      "Ġvar": 7349,
      "è¿Ļéģĵ": 7350,
      "æĺ¯æľī": 7351,
      "æŀĦéĢł": 7352,
      "åħ³èģĶ": 7353,
      "ä¸Ģçľĭ": 7354,
      "çģ¯åħī": 7355,
      "çİĭæĺŁ": 7356,
      "åĮĸåŃ¦åıįåºĶ": 7357,
      "åĲ¯åıĳ": 7358,
      "ç»¼åĲĪèĢĥèĻĳ": 7359,
      "éļĨ": 7360,
      "æĻ¯èī²": 7361,
      "çĶµæºĲ": 7362,
      "æĺ¯è¦ģ": 7363,
      "å¾®ç¬ĳ": 7364,
      "éĤ¦": 7365,
      "æĭħå¿§": 7366,
      "åĨĻåŃĹæ¯į": 7367,
      "çļĦåŃ¦ä¹ł": 7368,
      "çĶŁäº§åĬĽ": 7369,
      "æĤ¨åı¯ä»¥åľ¨": 7370,
      "çļĦåĩºçİ°": 7371,
      ")ãĢĤ": 7372,
      "æİĪæĿĥ": 7373,
      "èµł": 7374,
      "å»¶éķ¿": 7375,
      "è½¬åŀĭ": 7376,
      "Ġè¿Ļä¸ª": 7377,
      "arch": 7378,
      "é»ĳèĥ¡æ¤Ĵ": 7379,
      "æľĢåĪĿ": 7380,
      "çĶŁæ´»ä¹łæĥ¯": 7381,
      "éĢļé£İ": 7382,
      "åĤ¬": 7383,
      "index": 7384,
      "Ġcont": 7385,
      "'t": 7386,
      "fe": 7387,
      "rt": 7388,
      "æĭĴç»Ŀ": 7389,
      "è¢Ń": 7390,
      "çļĦè¯Ŀé¢ĺ": 7391,
      "è¡¨çİ°ä¸º": 7392,
      "ĠĠĠĠĠĠĠĠĠĠĠĠĠĠĠĠ": 7393,
      "å´©": 7394,
      "å¤´åıĳ": 7395,
      "ply": 7396,
      "å¥½å¥½": 7397,
      "Ġmin": 7398,
      "åıĤä¸İèĢħ": 7399,
      "å°¤åħ¶æĺ¯åľ¨": 7400,
      "æĺ¯ä¸Ģä¸ªéĿŀå¸¸": 7401,
      "åħ¶ä»ĸäºº": 7402,
      "assword": 7403,
      "è®¤è¯ĨåĪ°": 7404,
      "ç»Ļäºº": 7405,
      "å°¼äºļ": 7406,
      "åĴĮæıĲé«ĺ": 7407,
      "ä¸ªæľĭåıĭ": 7408,
      "ä»¥ä¸ĬçļĦ": 7409,
      "çļĦæĢ§èĥ½": 7410,
      "88": 7411,
      "imes": 7412,
      "çĶľçĤ¹": 7413,
      "çĥ¤çĽĺ": 7414,
      "çıįæĥľ": 7415,
      "çĭĲ": 7416,
      "é¥®é£ŁåĴĮ": 7417,
      "åģļä¸ĢäºĽ": 7418,
      "çĽĪåĪ©": 7419,
      "å¦Ĥä½ķåĪ¶ä½ľ": 7420,
      "èµ°äºĨ": 7421,
      "ory": 7422,
      "åĲ¯ç¤º": 7423,
      "æĥ³çŁ¥éģĵ": 7424,
      "æīĭæ³ķ": 7425,
      "çłĤ": 7426,
      "åįī": 7427,
      "Ġéģ¿åħį": 7428,
      "éĥ½ä¸į": 7429,
      "æĸ¤": 7430,
      "æĺı": 7431,
      "è®¼": 7432,
      "Pythonä¸Ń": 7433,
      "å°ıæĺİæīĭ": 7434,
      "AB": 7435,
      "å¤įåĪ¶": 7436,
      "æĳĦæ°ı": 7437,
      "åı¯çĪ±": 7438,
      "èĥ½å¤ŁæĽ´å¥½åľ°": 7439,
      "æħ°": 7440,
      "éĩįè¦ģæĢ§": 7441,
      "é¢ĦæĬ¥": 7442,
      "çĲĨçĶ±": 7443,
      "è¦ģçĤ¹": 7444,
      "me": 7445,
      "å¤§åľ°": 7446,
      "éªĳèĩªè¡Įè½¦": 7447,
      "èĩªå·±åĴĮ": 7448,
      "ĠSystem": 7449,
      "çºłæŃ£": 7450,
      "é¢Ĩå¯¼èĢħ": 7451,
      "é¢ĦçĥŃ": 7452,
      "æ··åĲĪçī©": 7453,
      "éľĢè¦ģæĽ´å¤ļçļĦ": 7454,
      "åľ¨è¿Ļä¸ªä¾ĭåŃĲä¸Ń": 7455,
      "åĽ¢éĺŁçļĦ": 7456,
      "æµĵåº¦": 7457,
      "å¹¿éĺĶ": 7458,
      "éĴ¢çĲ´": 7459,
      "å®¶çĶµ": 7460,
      "char": 7461,
      "åįĹæŀģ": 7462,
      "æłĩçĤ¹": 7463,
      "ä¸ºåŁºç¡Ģ": 7464,
      "éĿ¢ä¸´çļĦ": 7465,
      "é»ĦèĬ": 7466,
      "æŁĶåĴĮ": 7467,
      "åħ·ä½ĵæĿ¥è¯´": 7468,
      "çĻ½å¸¦": 7469,
      "è¿ĩäºĨ": 7470,
      "å±ķçİ°äºĨ": 7471,
      "List": 7472,
      "iPhone": 7473,
      "äº§åĵģæĪĸæľįåĬ¡": 7474,
      "å±ķè§Ī": 7475,
      "åĬłå¿«": 7476,
      "å¿ĥè¡Ģç®¡": 7477,
      "èĬ±åįī": 7478,
      "åĩıç¼ĵ": 7479,
      "ç°": 7480,
      "ç¦ģæŃ¢": 7481,
      "ç¾½": 7482,
      "å¹¶è§£éĩĬ": 7483,
      "çĶŁæ´»è´¨éĩı": 7484,
      "è¯īè®¼": 7485,
      "æ²Ļæ¼ł": 7486,
      "èĭĵ": 7487,
      "çŁ³å¤´": 7488,
      "Ġå¤§": 7489,
      "æİ¢ç©¶": 7490,
      "æ²¡éĹ®é¢ĺ": 7491,
      "çļĦå£°éŁ³": 7492,
      "Ġac": 7493,
      "åĩºåİ»": 7494,
      "éĩĩåıĸæİªæĸ½": 7495,
      "æĪĳä»¬åħ¬åı¸çļĦ": 7496,
      "éĹ´çļĦ": 7497,
      "éĢłæĪĲçļĦ": 7498,
      "ĠTrue": 7499,
      "åĲ¸å¼ķæĽ´å¤ļçļĦ": 7500,
      "æ¬¾å¼ı": 7501,
      "åľ¨ä¸įåĲĮ": 7502,
      "çļĦé¢ĨåŁŁ": 7503,
      "çĸĳéĹ®": 7504,
      "çī©ä½ĵçļĦ": 7505,
      "éģİ": 7506,
      "åĴĮæľĭåıĭ": 7507,
      "è¿Ļåľº": 7508,
      "åĦ¿åŃĲ": 7509,
      "éĥ¨ç½²": 7510,
      "400": 7511,
      "å¸Ĥæ°ĳ": 7512,
      "äºļæ´²": 7513,
      "æĬĢæľ¯æĿ¥": 7514,
      "é¤Ĳé¥®": 7515,
      "åħ¨æĸ°çļĦ": 7516,
      "éĹ®çŃĶ": 7517,
      "æ¶ĪçĤİ": 7518,
      "Ġ=>": 7519,
      "çļĦåĬŁæķĪ": 7520,
      "æľīä»·åĢ¼": 7521,
      "ãĢĤãĢĬ": 7522,
      "è¶ħçº§": 7523,
      "æĪĳæľī": 7524,
      "æĤ¨è®¤ä¸º": 7525,
      "Ġå¯¹äºİ": 7526,
      "å¤©æĸĩåŃ¦": 7527,
      "è·Į": 7528,
      "è°ĥæĸĻ": 7529,
      "ä½Ĩä»ĸ": 7530,
      "label": 7531,
      "ç§įåŃĲ": 7532,
      "æīĳ": 7533,
      "åİļçļĦ": 7534,
      "æĿı": 7535,
      "å¹³éĿĻ": 7536,
      "èĨ³": 7537,
      "çĽ¸å¯¹è®º": 7538,
      "åĪĨè¯į": 7539,
      "èµ¤": 7540,
      "æľīåı¯èĥ½": 7541,
      "éĿ¢æĿ¡": 7542,
      "éĥ½è¦ģ": 7543,
      "åģľè½¦": 7544,
      "æĶ¹åıĺäºĨ": 7545,
      "æĳĦå½±": 7546,
      "æ¸©å®¤æ°Ķä½ĵæİĴæĶ¾": 7547,
      "æĺ¯è°ģ": 7548,
      "çŁ¥è¯ĨåĴĮ": 7549,
      "å®Ŀçİī": 7550,
      "çļĦå¸®åĬ©": 7551,
      "é£Łæ¬²": 7552,
      "çŃĭ": 7553,
      "Ġäººå·¥æĻºèĥ½": 7554,
      "åĪĿå§ĭåĮĸ": 7555,
      "åĿļæŀľ": 7556,
      "å·²ç»ıå¼Ģå§ĭ": 7557,
      "è®¾è®¡çļĦ": 7558,
      "åºĶçĶ¨åľºæĻ¯": 7559,
      "çİ«": 7560,
      "å®ĿèĹı": 7561,
      "éĩĮæľī": 7562,
      "ĠIn": 7563,
      "2000": 7564,
      "ä¼łè¯´": 7565,
      "æķ°çĻ¾": 7566,
      "åĩºä¸Ģä¸ª": 7567,
      "çī¹åĪ«æĺ¯åľ¨": 7568,
      "\");": 7569,
      "ç¤¼çī©": 7570,
      "æĸ°çĶŁ": 7571,
      "è¾¹ç¼ĺ": 7572,
      "ĠæĻºèĥ½": 7573,
      "ä¾ĽåºĶéĵ¾": 7574,
      "IP": 7575,
      "è¾ĵåħ¥çļĦ": 7576,
      "å·¥åħ·åĴĮ": 7577,
      "ä¸ŃçļĦä¸Ģä¸ª": 7578,
      "å®ĩå®ĻçļĦ": 7579,
      "button": 7580,
      "ä¸İäºº": 7581,
      "æĲºå¸¦": 7582,
      "javascript": 7583,
      "è¿ĻäºĽæķ°æį®": 7584,
      "åĴĮäººç±»": 7585,
      "çļĦä¸ľè¥¿": 7586,
      "ä»¥ç¡®å®ļ": 7587,
      "æ²ĥ": 7588,
      "æī¹è¯Ħ": 7589,
      "æī©å¼ł": 7590,
      "äººå¿ĥ": 7591,
      "ä¸ĢäºĽäºº": 7592,
      "éĥ½å¾Ī": 7593,
      "çļĦçŃĶæ¡Ī": 7594,
      "çľĭçĶµå½±": 7595,
      "åįķåħĥ": 7596,
      "æĶ¾æĿ¾èº«å¿ĥ": 7597,
      "å°ıæĺİçļĦ": 7598,
      "æĶ¹éĿ©": 7599,
      "ä½ıå®¿": 7600,
      "åı£ç½©": 7601,
      "æĥ©": 7602,
      "å°ıæľĭåıĭ": 7603,
      "åľ°äºĨè§£": 7604,
      "ign": 7605,
      "çļĦç©ºæ°Ķ": 7606,
      "ĠçĶ¨": 7607,
      "æ°´åĮĸåĲĪçī©": 7608,
      "è¯¥åħ¬åı¸": 7609,
      "çļĦæĦıä¹ī": 7610,
      "è¿Ļä¹Łæĺ¯": 7611,
      "éļĲç§ģä¿ĿæĬ¤": 7612,
      "åı£ç¢ĳ": 7613,
      "ç¢³æİĴæĶ¾": 7614,
      "åı£èħĶ": 7615,
      "fer": 7616,
      "çļĦåı¯èĥ½æĢ§": 7617,
      "éº¼": 7618,
      "çļĦçķ": 7619,
      "å®ŀçİ°äºĨ": 7620,
      "åĭº": 7621,
      "åīįåĪĹèħºçĤİ": 7622,
      "ane": 7623,
      "çļĦçł´": 7624,
      "åİĭç¼©": 7625,
      "ç¹ģæ®ĸ": 7626,
      "æģĲé¾Ļ": 7627,
      "æĮ¤": 7628,
      "å¸Ĥåľºä»½é¢Ŀ": 7629,
      "äººå·¥æĻºèĥ½åľ¨åĮ»çĸĹ": 7630,
      "ç»ĻåŃ©åŃĲ": 7631,
      "å¯¹åºĶçļĦ": 7632,
      "äººå·¥æĻºèĥ½æĬĢæľ¯çļĦ": 7633,
      "åħ¥æīĭ": 7634,
      "çĶ¨æĪ·åı¯ä»¥": 7635,
      "34": 7636,
      "ç»ĻæĤ¨": 7637,
      "çļĦç¥ŀç»ı": 7638,
      "åŃĹä½ĵ": 7639,
      "çļĦè§£åĨ³æĸ¹æ¡Ī": 7640,
      "çİ«çĳ°": 7641,
      "mat": 7642,
      "è¿Ļå°±æĺ¯": 7643,
      "äº²å¯Ĩ": 7644,
      "ä¸¤ä¸ªæķ°åŃĹ": 7645,
      "å¸ķ": 7646,
      "å®Įç¾İçļĦ": 7647,
      "ãĢĤâĢľ": 7648,
      "æ¨¡ä»¿": 7649,
      "ä¸Ģåħ±": 7650,
      "å±±å³°": 7651,
      "çļĦåĲ«ä¹ī": 7652,
      "èį¯åĵģ": 7653,
      "ç»ĻæĪĳä»¬": 7654,
      "ä¹Łæ²¡æľī": 7655,
      "æ²»çĸĹæķĪæŀľ": 7656,
      "æĸĩåŃ¦ä½ľåĵģ": 7657,
      "ç¼ĸåĨĻä¸Ģä¸ªåĩ½æķ°": 7658,
      "ä¸ŃåĽ½åı¤ä»£": 7659,
      "ç¼ºå¤±": 7660,
      "æ£ķ": 7661,
      "è¿Ļåıª": 7662,
      "æĬĺæī£": 7663,
      ".ãĢĬ": 7664,
      "å¢ŀåĬłäºĨ": 7665,
      "åĪ©çİĩ": 7666,
      "åĻ¨çļĦ": 7667,
      "éĹ»åĲį": 7668,
      "æľ¨æĺŁ": 7669,
      "åħĭçļĦ": 7670,
      "åĩĢåĮĸ": 7671,
      "èĩªçĦ¶çİ¯å¢ĥ": 7672,
      "æ¸Ĺ": 7673,
      "ä¸¦": 7674,
      "æĪĳä¸ĢçĽ´": 7675,
      "å¼ķæĿ¥": 7676,
      "çĽ´å¾Ħ": 7677,
      "å¦Ĥä½ķå¤ĦçĲĨ": 7678,
      "çļĦåĽłç´ł": 7679,
      "ä¸Ģå®ļä¼ļ": 7680,
      "ç§ģäºº": 7681,
      "ĠåĩĨå¤ĩ": 7682,
      "æĮĩå¯¼æĦıè§ģ": 7683,
      "çĿ¾ä¸¸": 7684,
      "ç¨ĭåºıåĳĺ": 7685,
      "åı¦ä¸Ģç§į": 7686,
      "è¿ĻæĹ¶": 7687,
      "éľĢè¦ģæĪĳä»¬": 7688,
      "æĩī": 7689,
      "éĶĲ": 7690,
      "å»ºç«ĭèī¯å¥½çļĦ": 7691,
      "çļĦç»ĵæŀĦ": 7692,
      "åľ¨å¤ĦçĲĨ": 7693,
      "ug": 7694,
      "è¦ģç´ł": 7695,
      "avid": 7696,
      "èµĦæ·±": 7697,
      "å½±åĵįåĬĽ": 7698,
      "è®Ńç»ĥåĴĮ": 7699,
      "åĮºåĪĨ": 7700,
      "åı¯ä»¥å¯¹": 7701,
      "æķħäºĭæĥħèĬĤ": 7702,
      "å¤ļå½©": 7703,
      "åĲ´": 7704,
      "çļĦçĪ¶": 7705,
      "çļĦåįķè¯į": 7706,
      "æł¹æľ¬": 7707,
      "å§ĳ": 7708,
      "ock": 7709,
      "çļĦçĭ¬çī¹": 7710,
      "åĨłåĨĽ": 7711,
      "ç±³é¥Ń": 7712,
      "åĴĮæĪĳ": 7713,
      "çĽ®æłĩåıĹä¼Ĺ": 7714,
      "ä¸ĩç¾İåħĥ": 7715,
      "çĶµè¯Ŀåı·çłģ": 7716,
      "éĢļå¸¸åľ¨": 7717,
      "çļĦçĤ¹": 7718,
      "åĨĽäºĭ": 7719,
      "SV": 7720,
      "éŁ³é¢ĳ": 7721,
      "çļĦä»£è¡¨": 7722,
      "æĻĭ": 7723,
      "è¿Ľè¡Įæ²»çĸĹ": 7724,
      "ank": 7725,
      "æł¹æį®ä½łçļĦ": 7726,
      "Ġ25": 7727,
      "æ¯«åįĩ": 7728,
      "åĨ·åį´": 7729,
      "éĥ½éĿŀå¸¸": 7730,
      "éĿ¢ä¸Ĭ": 7731,
      "çľĭæ³ķ": 7732,
      "æĺ¯åĲ¦åŃĺåľ¨": 7733,
      "ä¼ĺéĽħ": 7734,
      "ash": 7735,
      "ĠåĪ©çĶ¨": 7736,
      "Ġ50": 7737,
      "æĪ¿äº§": 7738,
      "çļĦåĬ¨çī©": 7739,
      "åı¶æĸ¯": 7740,
      "email": 7741,
      "ç²ĴåŃĲ": 7742,
      "éľĢè¦ģå°Ĩ": 7743,
      "å®ŀéªĮå®¤": 7744,
      "åĽ¾ä¹¦é¦Ĩ": 7745,
      "åģ¥èº«æĪ¿": 7746,
      "é«ĺåĵģè´¨": 7747,
      "æ´Ĺè¡£": 7748,
      "èĬ¯": 7749,
      "ä»¥ä¿ĿæĮģ": 7750,
      "æŃĩ": 7751,
      "ä¹Łæĺ¯ä¸Ģä¸ª": 7752,
      "æľĢè¿ĳçļĦ": 7753,
      "åı¯è¯»": 7754,
      "å®ı": 7755,
      "ä»ªå¼ı": 7756,
      "çļĦçĽ®çļĦ": 7757,
      "ç´łé£Ł": 7758,
      "å¹²æĹ±": 7759,
      "å¸¦æĿ¥æĽ´å¤ļçļĦ": 7760,
      "oup": 7761,
      "çī©åĴĮ": 7762,
      "ç§ĺå¯Ĩ": 7763,
      "Pythonä»£çłģ": 7764,
      "andas": 7765,
      "æ·±æ·±": 7766,
      "itle": 7767,
      "ä¿Ħ": 7768,
      "åıĺå¾Ĺè¶ĬæĿ¥è¶Ĭ": 7769,
      "é«ĺè´¨éĩıçļĦ": 7770,
      "è´Ŀåı¶æĸ¯": 7771,
      "æĮĩæķ°": 7772,
      "çº¿ç¨ĭ": 7773,
      "åİĨåı²ä¸Ĭ": 7774,
      "Ġlet": 7775,
      "èĢĮæĪĲ": 7776,
      "Ġlist": 7777,
      "æĺ¯ä¸ºäºĨ": 7778,
      "æĥħåĴĮ": 7779,
      "çļĦçħ§": 7780,
      "igh": 7781,
      "æķ´éĻ¤": 7782,
      "åį§å®¤": 7783,
      "å¾®ä¿¡": 7784,
      "å¤ĩä»½": 7785,
      "çŁŃæľŁ": 7786,
      "éĴ»": 7787,
      "ç¤¾äº¤åªĴä½ĵä¸Ĭ": 7788,
      "åıįæĺłäºĨ": 7789,
      "åı¯ä»¥åĪ©çĶ¨": 7790,
      "ä¸įèµ·": 7791,
      "åįĬå¾Ħ": 7792,
      "æĬ¬": 7793,
      "æİ¥åı£": 7794,
      "å°ıæĺİåĴĮ": 7795,
      "ä»·åĢ¼åĴĮ": 7796,
      "ä¸ĸçķĮåĲĦåľ°": 7797,
      "æĹłéľĢ": 7798,
      "è¿Ļä¸ªè¿ĩç¨ĭ": 7799,
      "å¤ĸéĺ´": 7800,
      "èĳ¡èĲĦéħĴ": 7801,
      "åħ¨åĽ½": 7802,
      "split": 7803,
      "ç³ľ": 7804,
      "item": 7805,
      "å¯¼åħ¥": 7806,
      "çļĦä¾ĭåŃĲ": 7807,
      "æļ´åĬĽ": 7808,
      "åĪĿåĪĽ": 7809,
      "ç»Łä¸Ģ": 7810,
      "01": 7811,
      "åĩºçİ°åľ¨": 7812,
      "åıĳçĶµ": 7813,
      "è¡ĮæĶ¿": 7814,
      "æľºåĻ¨äººçļĦ": 7815,
      "æ¼Ķç¤º": 7816,
      "new": 7817,
      "åħīçħ§": 7818,
      "æĿľ": 7819,
      "æĪĳä»¬å¯¹": 7820,
      "--------": 7821,
      "è¿½è¸ª": 7822,
      "åĲĮä¹īè¯į": 7823,
      "åĩĨç¡®çİĩ": 7824,
      "å¸Ĥä¸Ńå¿ĥ": 7825,
      "æĿ¥äºĨ": 7826,
      "çīµ": 7827,
      "çļĦåħ¬åı¸": 7828,
      "åĶ®åĲİæľįåĬ¡": 7829,
      "æĹ¶éĹ´è¡¨": 7830,
      "Ġåĩıå°ĳ": 7831,
      "âĳ": 7832,
      "æĬµæĬĹ": 7833,
      "åŀĥåľ¾éĤ®ä»¶": 7834,
      "çļĦä¸į": 7835,
      "é¥®åĵģ": 7836,
      "ç»©æķĪ": 7837,
      "è°¢è°¢ä½ł": 7838,
      "å°½åı¯èĥ½åľ°": 7839,
      "å¤±ä¸ļ": 7840,
      "åĽ´ç»ķ": 7841,
      "èĤ¥æĸĻ": 7842,
      "èĨ³é£Ł": 7843,
      "ä¹ĭæĹħ": 7844,
      "æĪ·å¤ĸæ´»åĬ¨": 7845,
      "ä¸¤ä¸ªäºº": 7846,
      "çŃĸåĪĴ": 7847,
      "åı¯ä»¥æĽ´å¥½åľ°": 7848,
      "åĻªéŁ³": 7849,
      "38": 7850,
      "åĪ¶éĢłä¸ļ": 7851,
      "ull": 7852,
      "éĴł": 7853,
      "åİĭåĬĽåĴĮçĦ¦èĻĳ": 7854,
      "var": 7855,
      "åħ¬å¼Ģ": 7856,
      "å¦Ĥæŀľä½łæĥ³": 7857,
      "æĭ³": 7858,
      "åŃĺåĤ¨åľ¨": 7859,
      "æģ¼": 7860,
      "ä¼ĺçĤ¹åĴĮ": 7861,
      "ç®Ĺæ³ķåĴĮ": 7862,
      "ä¸ĬéĿ¢çļĦ": 7863,
      "æķĻç¨ĭ": 7864,
      "day": 7865,
      "å¯Ħ": 7866,
      "ç©¿è¶Ĭ": 7867,
      "æĪĲä¸ºä¸ĢåĲį": 7868,
      "æĤ¨èĥ½": 7869,
      "ä»¥ä¸ĭåĩłçĤ¹": 7870,
      "æ¶²ä½ĵ": 7871,
      "æĤ£èĢħåľ¨": 7872,
      "ç»ıéªĮçļĦ": 7873,
      "¬éĹ´": 7874,
      "æ¯ıç§į": 7875,
      "åĬłå¼ºå¯¹": 7876,
      "ä¸Ģä¸ªæĸ°çļĦ": 7877,
      "é¹¿": 7878,
      "æĺ¯ä¸Ģç§įéĿŀå¸¸": 7879,
      "æľªæĿ¥åıĳå±ķ": 7880,
      "æİ¥åıĹä¸Ģä¸ª": 7881,
      "èģĬå¤©æľºåĻ¨äºº": 7882,
      "AR": 7883,
      "èĪªç©º": 7884,
      "éħįå¤ĩ": 7885,
      "ĠIt": 7886,
      "åĲİç»Ń": 7887,
      "Ġsc": 7888,
      "æľįåĬ¡åĳĺ": 7889,
      "è®©èĩªå·±": 7890,
      "ä¸Ģåı¥è¯Ŀ": 7891,
      "åı¶åŃĲ": 7892,
      "eter": 7893,
      "çĶŁæĢģçİ¯å¢ĥ": 7894,
      "æĮīæĹ¶": 7895,
      "å¹¶ä¸Ķåľ¨": 7896,
      "è®¾å¤ĩçļĦ": 7897,
      "å®ŀçĶ¨çļĦ": 7898,
      "ä¸¤ä¸ªåı¥åŃĲ": 7899,
      "èµĦæºĲåĴĮ": 7900,
      "åģļä»Ģä¹Ī": 7901,
      "():": 7902,
      "ä¸Ńèį¯æ²»çĸĹ": 7903,
      "æī¿è¯º": 7904,
      "åħĥéĴ±": 7905,
      "éģ¿åħįè¿ĩåº¦": 7906,
      "å·²ç»ıåľ¨": 7907,
      "AIè¯Ńè¨Ģæ¨¡åŀĭ": 7908,
      "æ¡ĳ": 7909,
      "å¾Īå¤ļäºº": 7910,
      "æ¯ıä¸ªåįķè¯į": 7911,
      "é»Ħæ²¹": 7912,
      "å½±åĵįåĪ°": 7913,
      "åħ¬çĽĬ": 7914,
      "æīŃ": 7915,
      "ä»ĸæĥ³": 7916,
      "è®¤è¯ģ": 7917,
      "65": 7918,
      "cept": 7919,
      "å½¢æĪĲäºĨ": 7920,
      "å°ıåŃ©": 7921,
      "è®¡ç®ĹåĻ¨": 7922,
      "åĴĮç»Ħç»ĩ": 7923,
      "çº¿æĿ¡": 7924,
      "åķĨå®¶": 7925,
      "é¢ĸ": 7926,
      "å¸ĺ": 7927,
      "ulti": 7928,
      "éħįæĸ¹": 7929,
      "çĤ¹çļĦ": 7930,
      "çļĦçĥ¤": 7931,
      "éĿĴå°ĳå¹´": 7932,
      "ical": 7933,
      "æ¬ºè¯Ī": 7934,
      "èĬ±æľµ": 7935,
      "å¯Ĥ": 7936,
      "çİīç±³": 7937,
      "æĢİä¹Īåģļ": 7938,
      "çļĦé¦ĸ": 7939,
      "æĸ¯çī¹": 7940,
      "ç§ĳåŃ¦å®¶ä»¬": 7941,
      "åĸĦèī¯": 7942,
      "æııè¿°ä¸Ģä¸ª": 7943,
      "è¯ĨåĪ«åĴĮ": 7944,
      "ç¥ĿæĤ¨": 7945,
      "åĬłæ³ķ": 7946,
      "éŁµ": 7947,
      "èĦļæľ¬": 7948,
      "åħ¶ä¸ŃæľĢ": 7949,
      "é»Ľçİī": 7950,
      "éĥ¨çļĦ": 7951,
      "æģ¶æĦı": 7952,
      "Ġgr": 7953,
      "Ġsome": 7954,
      "å¹½é»ĺ": 7955,
      "æĪĸä¸į": 7956,
      "èĩªè½¬": 7957,
      "è¿ĺæľīä¸ĢäºĽ": 7958,
      "åĲ¸çĥŁ": 7959,
      "åĲįåı«": 7960,
      "éĽ¶åĶ®": 7961,
      "åĨ»": 7962,
      "64": 7963,
      "åľ°çĲĥä¸Ĭ": 7964,
      "æł¹æį®æĤ¨çļĦ": 7965,
      "Ġour": 7966,
      "ç§¯æŀģåıĤä¸İ": 7967,
      "çĶŁæ´»åľ¨": 7968,
      "åīįéĢĶ": 7969,
      "åħ¬åħĥ": 7970,
      "éģ®": 7971,
      "æķĳæı´": 7972,
      "åĳ¨åĽ´çļĦ": 7973,
      "ä¼ª": 7974,
      "åĬ²": 7975,
      "åĲĳéĩıæľº": 7976,
      "ä»¥èİ·å¾Ĺ": 7977,
      "æľĪäº®": 7978,
      "é«ĺç«¯": 7979,
      "ä¾ĿçĦ¶": 7980,
      "Ġte": 7981,
      "Node": 7982,
      "æ·ĩ": 7983,
      "æŃ£æĸ¹": 7984,
      "å¸®åĬ©ä»ĸä»¬": 7985,
      "ä¿¡å¿µ": 7986,
      "èģĮä¸ļçĶŁæ¶¯": 7987,
      "è¿Ļåı¯ä»¥": 7988,
      "é¢Ŀå¤ĸçļĦ": 7989,
      "åľ°æĿ¿": 7990,
      "å¯»æ±Ĥå¸®åĬ©": 7991,
      "ç©ºä¸Ń": 7992,
      "ĊĠĠĠĠĠĠĠĠĠĠĠĠĠĠĠĠĠĠĠ": 7993,
      "ç»ĺåĪ¶": 7994,
      "è¡ĵ": 7995,
      "å¾Īéĩįè¦ģçļĦ": 7996,
      "ãĢĭï¼Ī": 7997,
      "Ġpre": 7998,
      "çĦ¶åĲİä½¿çĶ¨": 7999,
      "é»ĳå®¢": 8000,
      "é¢ĨåħĪ": 8001,
      "åŃķå¦ĩ": 8002,
      "æľºåĻ¨åŃ¦ä¹łåĴĮ": 8003,
      "å®´": 8004,
      "åĪĨåĪ«æĺ¯": 8005,
      "æĸĩæľ¬ä¸ŃæıĲåıĸ": 8006,
      "ä»»æĦı": 8007,
      "èĢģå¹´äºº": 8008,
      "Ġæ£ĢæŁ¥": 8009,
      "è¾¹çķĮ": 8010,
      "å«Įçĸĳäºº": 8011,
      "ä¸ĸçķĮä¸Ĭ": 8012,
      "ä½Ĩå®ĥä»¬": 8013,
      "Ġgo": 8014,
      "æ½®æµģ": 8015,
      "æ¸ħæĻ°çļĦ": 8016,
      "ç¿Ĵ": 8017,
      "è§£è¯»": 8018,
      "Ġä¸İ": 8019,
      "éħ±æ²¹": 8020,
      "èĢĮå¼Ĥ": 8021,
      "ä¼łéĢĴç»Ļ": 8022,
      "Ġnums": 8023,
      "çĶµè§Ĩåī§": 8024,
      "å°ĳéĩı": 8025,
      "çļĦç¤¾äº¤åªĴä½ĵ": 8026,
      "å®ģéĿĻ": 8027,
      "Ġï¼Ī": 8028,
      "é¥®éħĴ": 8029,
      "è¿ĳæľŁ": 8030,
      "åĲ¬èµ·æĿ¥ä¸įéĶĻ": 8031,
      "Ġ<=": 8032,
      "ebook": 8033,
      "å½±åĵįäºĨ": 8034,
      "å¡«åĨĻ": 8035,
      "è½¯ä»¶å¼Ģåıĳ": 8036,
      "åĿ¡": 8037,
      "é«ĵ": 8038,
      "Ġæĸ¹æ³ķ": 8039,
      "æĥ³åĪ°": 8040,
      "HTML": 8041,
      "è§£åĨ³éĹ®é¢ĺçļĦ": 8042,
      "èĥİåĦ¿": 8043,
      "å¦Ĥæŀľä¸į": 8044,
      "ä»»åĬ¡çļĦ": 8045,
      "åĴĮèĶ¬èıľ": 8046,
      "ä½ĵæ¸©": 8047,
      "ken": 8048,
      "è¯¯è§£": 8049,
      "ana": 8050,
      "åı¤è¯Ĺ": 8051,
      "çŃ¹": 8052,
      "Ġoper": 8053,
      "çĥŃæ°´": 8054,
      "very": 8055,
      "çĹĶ": 8056,
      "çī¹çĤ¹åĴĮ": 8057,
      "à¤": 8058,
      "æĻºåĬĽ": 8059,
      "æľĢå°ıåĢ¼": 8060,
      "æ¶Į": 8061,
      "ä¸ĭä¸Ģ": 8062,
      "éĢļè¿ĩä½¿çĶ¨": 8063,
      "åĨ°æ·ĩ": 8064,
      "æ¾³": 8065,
      "çļĦé£Łåĵģ": 8066,
      "æīĭèĩĤ": 8067,
      "åį¢": 8068,
      "æłĩçĤ¹ç¬¦åı·": 8069,
      "å»ºè®®åĴĮ": 8070,
      "é¦Ļèįī": 8071,
      "èµ·äºĨ": 8072,
      "æº¢": 8073,
      "ç®Ģä»ĭ": 8074,
      "Ġuse": 8075,
      "ä¿ĿæĬ¤æĪĳä»¬çļĦ": 8076,
      "æľīä¸įåĲĮçļĦ": 8077,
      "pen": 8078,
      "è§Ĩéĩİ": 8079,
      "io": 8080,
      "æ²»çĲĨ": 8081,
      "éħĴç²¾": 8082,
      "åĩŃ": 8083,
      "éĵ¾æİ¥": 8084,
      "ĠåĬłå¼º": 8085,
      "reak": 8086,
      "åĨ°æ·ĩæ·ĭ": 8087,
      "å¦Ĥä»Ĭ": 8088,
      "åķĨäºº": 8089,
      "çļĦç¾İä¸½": 8090,
      "çī¹åĪ«çļĦ": 8091,
      "å¤©æķ°": 8092,
      "æ¯Ķçī¹": 8093,
      "Data": 8094,
      "åīįè¿Ľ": 8095,
      "å¿łè¯ļåº¦": 8096,
      "ç¨®": 8097,
      "ç¤¾äº¤åªĴä½ĵå¹³åı°": 8098,
      "ayer": 8099,
      "æĴĴä¸Ĭ": 8100,
      "æĶ¿åºľåĴĮ": 8101,
      "è¯Ńæ³ķéĶĻè¯¯": 8102,
      "è¿Ŀåıį": 8103,
      "æ³¨éĩĬ": 8104,
      "çľĭéĩį": 8105,
      "åŁºç¡Ģè®¾æĸ½": 8106,
      "ä¸įä»ħåı¯ä»¥": 8107,
      "èĲ¥åħ»ç´ł": 8108,
      "åŃ¦çĶŁçļĦåŃ¦ä¹ł": 8109,
      "åŃ¦ä¹łæĸ°": 8110,
      "çĹħåıĺ": 8111,
      "å°ıçĲĥ": 8112,
      "çļĦäººçī©": 8113,
      "åĬ¨èĦī": 8114,
      "ç²¾å½©": 8115,
      "ä½ľåĩº": 8116,
      "èµ«": 8117,
      "çĮ´": 8118,
      "Ċĉĉ": 8119,
      "æįĲ": 8120,
      "æ¨¡æĿ¿": 8121,
      "Ġfe": 8122,
      "Ġleft": 8123,
      "åĨħåĪĨæ³Į": 8124,
      "åı¤èĢģçļĦ": 8125,
      "åħ±é¸£": 8126,
      "å®¹éĩı": 8127,
      "è®°èĢħ": 8128,
      "æł¹æį®æĤ¨": 8129,
      "sv": 8130,
      "æľīåºı": 8131,
      "åĲĪä½ľä¼Ļä¼´": 8132,
      "æİ¨èįĲä¸Ńèį¯": 8133,
      "èµ¢å¾Ĺ": 8134,
      "ocument": 8135,
      "ä¿Ŀæļĸ": 8136,
      "Ġ18": 8137,
      "åĸĤåħ»": 8138,
      "åĨħèĨľ": 8139,
      "èĤ¥èĥĸ": 8140,
      "å¿ĥéĩĮ": 8141,
      "ç¥ŀå¥ĩ": 8142,
      "è¿ĻåĮħæĭ¬": 8143,
      "åĪĨç¦»": 8144,
      "æĴ°åĨĻä¸Ģç¯ĩ": 8145,
      "vel": 8146,
      "indow": 8147,
      "èŃ¦æĸ¹": 8148,
      "æīĵåĩ»": 8149,
      "è®©ä»ĸ": 8150,
      "CO": 8151,
      "æ°Ķæ°Ľ": 8152,
      "æīįåįİ": 8153,
      "åĲĬ": 8154,
      "çļĦç¢": 8155,
      "ä¹ŁåºĶè¯¥": 8156,
      "plot": 8157,
      "ç¢Ĺä¸Ń": 8158,
      "rix": 8159,
      "çļĦçª": 8160,
      "ä¿¡çĶ¨åį¡": 8161,
      "çº¿ç´¢": 8162,
      "çļĦç±»åĪ«": 8163,
      "ç»´çĶŁç´łC": 8164,
      "éĶ»çĤ¼èº«ä½ĵ": 8165,
      "çĭ±": 8166,
      "æĹ¥ç¨ĭ": 8167,
      "å¤ĩåıĹ": 8168,
      "éģ¿åħįä½¿çĶ¨": 8169,
      "Ġend": 8170,
      "åįıåĲĮ": 8171,
      "æĽ´æĺ¯": 8172,
      "David": 8173,
      "reat": 8174,
      "è¿ĩæĿ¥": 8175,
      "åĪĽä¸ļèĢħ": 8176,
      "æ²«": 8177,
      "åľ°éĵģ": 8178,
      "å¸®åĬ©æĪĳä»¬": 8179,
      "SQL": 8180,
      "æ°Ķè±¡": 8181,
      "æĬ¥è¡¨": 8182,
      "åĮĸå¦Ĩåĵģ": 8183,
      "çľĭäºĨ": 8184,
      "its": 8185,
      "èªīä¸º": 8186,
      "æ²¡éĶĻ": 8187,
      "æīĩ": 8188,
      "ç·": 8189,
      "è§ģè§£": 8190,
      "æĿ¥å®ĮæĪĲ": 8191,
      "å°¼åħĭ": 8192,
      "ä»¥å®ŀçİ°": 8193,
      "æĹłçº¿": 8194,
      "æĹ©æĹ¥": 8195,
      "çļĦç³»ç»Ł": 8196,
      "åŃ¦ä¹łç¼ĸç¨ĭ": 8197,
      "è¥¿çº¢": 8198,
      "Int": 8199,
      "é»ı": 8200,
      "åıĳçĶŁåľ¨": 8201,
      "ä¹ĲåĻ¨": 8202,
      "ä¸ĬéĿ¢çļĦéĹ®é¢ĺ": 8203,
      "æī¶": 8204,
      "å¢ŀçĶŁ": 8205,
      "çļĦçĶ¨æĪ·": 8206,
      "ä»Ģéº¼": 8207,
      "èĥ°": 8208,
      "é©¬ä¸Ĭ": 8209,
      "ç»ĵå©ļ": 8210,
      "é£İæł¼çļĦ": 8211,
      "è¿½æº¯åĪ°": 8212,
      "å¦Ĥä½ķæıĲé«ĺ": 8213,
      "next": 8214,
      "å¿«éĢŁåıĳå±ķ": 8215,
      "æ²īæµ¸": 8216,
      "è¯·ç»ĻæĪĳ": 8217,
      "æłĸæģ¯åľ°": 8218,
      "orm": 8219,
      "æķ´åĲĪ": 8220,
      "åĽŀçŃĶä¸ĬéĿ¢çļĦéĹ®é¢ĺ": 8221,
      "æł¹æį®æıĲä¾ĽçļĦ": 8222,
      "çºªå¿µ": 8223,
      "æŃ¢çĹĽ": 8224,
      "acy": 8225,
      "æīĭåĨĮ": 8226,
      "æĪĲè¯Ń": 8227,
      "è¥¿çº¢æŁ¿": 8228,
      "æĪĳä»¬é¦ĸåħĪ": 8229,
      "å®¶åĽŃ": 8230,
      "ä»ĺæ¬¾": 8231,
      "ä½ľä¸ºä¸ĢåĲį": 8232,
      "å®ĥä¼ļ": 8233,
      "é¦Ļåĳ³": 8234,
      "éĺŁä¼į": 8235,
      "åľ¨ç»Ļå®ļçļĦ": 8236,
      "è°ĭ": 8237,
      "Ġpr": 8238,
      "çĭĹçļĦ": 8239,
      "çļĦç¦": 8240,
      "é¦Ļæ°Ķ": 8241,
      "çīĽé¡¿": 8242,
      "æ´¥": 8243,
      "Sam": 8244,
      "çļĦéĥ¨åĪĨ": 8245,
      "æĶ¯æĮģåĲĳéĩıæľº": 8246,
      "æĽ´å¤ļçļĦäºº": 8247,
      "åıĳåĬ¨æľº": 8248,
      "CP": 8249,
      "éĸĵ": 8250,
      "å£°èªī": 8251,
      "åīįæıĲ": 8252,
      "çĦ¶åĲİåĨį": 8253,
      "å¹¶æıĲåĩº": 8254,
      "ä¸»æĦı": 8255,
      "çļĦä¸»è¦ģåĨħå®¹": 8256,
      "alculate": 8257,
      "åĬĽåº¦": 8258,
      "æĤłä¹ħ": 8259,
      "://": 8260,
      "é«Ķ": 8261,
      "çĶŁçī©å¤ļæł·æĢ§": 8262,
      "èĩªçĦ¶çķĮ": 8263,
      "æłĵ": 8264,
      "å·¥èµĦ": 8265,
      "èĩªçĦ¶çļĦ": 8266,
      "èĭ¹æŀľåħ¬åı¸": 8267,
      "æĳĦåĥı": 8268,
      "htt": 8269,
      "æĪĳåºĶè¯¥": 8270,
      "å¸ĮæľĽè¿ĻäºĽ": 8271,
      "æīĵçł´": 8272,
      "ä½ľæģ¯": 8273,
      "ations": 8274,
      "æĹĹ": 8275,
      "æ´»åĬ¨çļĦ": 8276,
      "éħ¸å¥¶": 8277,
      "èº«ä½ĵçĬ¶åĨµ": 8278,
      "æĺ¥å¤©": 8279,
      "æĦıå¿Ĺ": 8280,
      "æĢ»åĴĮ": 8281,
      "è´¢åĬ¡çĬ¶åĨµ": 8282,
      "eg": 8283,
      "è¿Ľè¡Įæ¯Ķè¾ĥ": 8284,
      "åıĳçĶŁçļĦ": 8285,
      "çº¢èī²çļĦ": 8286,
      "æ°Ķç®¡": 8287,
      "ç»µ": 8288,
      "æ¯ıäºº": 8289,
      "äº§çĶŁå½±åĵį": 8290,
      "æĬĽ": 8291,
      "ç»ıæµİåıĳå±ķ": 8292,
      "Ġset": 8293,
      "åĿļå®ļ": 8294,
      "å¼¯æĽ²": 8295,
      "æĺ¯åħ³äºİ": 8296,
      "å½¢æĪĲçļĦ": 8297,
      "åħ¬äº¤": 8298,
      "åĴĮéģĵå¾·": 8299,
      "åĽŀæĸĩ": 8300,
      "Ġall": 8301,
      "æľīå¤ļ": 8302,
      "irst": 8303,
      "Ġcurrent": 8304,
      "ĠéĢļè¿ĩ": 8305,
      "çĲĨæĢ§": 8306,
      "åĲĥé¥Ń": 8307,
      "tal": 8308,
      "æľĢä½İ": 8309,
      "ning": 8310,
      "åı¦ä¸Ģæĸ¹éĿ¢": 8311,
      "æ¸ħéĻ¤": 8312,
      "Ġ!": 8313,
      "æīĭæĮĩ": 8314,
      "å²©çŁ³": 8315,
      "æİ¨èįĲä¸ĢäºĽ": 8316,
      "æ¸´æľĽ": 8317,
      "åħ¨çĲĥèĮĥåĽ´åĨħ": 8318,
      "èĿ´": 8319,
      "æ³ķå¾ĭæ³ķè§Ħ": 8320,
      "ln": 8321,
      "çħ§æĺİ": 8322,
      "åŀĭåı·": 8323,
      "ee": 8324,
      "åħ¶ä»ĸçĹĩçĬ¶": 8325,
      "èĿ´èĿ¶": 8326,
      "ä¾ĽåºĶåķĨ": 8327,
      "å¹¶ä¿ĿæĮģ": 8328,
      "ç«Ļåľ¨": 8329,
      "ä¹Ĳè§Ĥ": 8330,
      "é¾Łå¤´": 8331,
      "åŃĹçļĦ": 8332,
      "æī«æıı": 8333,
      "æ±¤åĮĻ": 8334,
      "åı¯èĥ½åŃĺåľ¨": 8335,
      "çļĦåĳ³éģĵ": 8336,
      "çĽ®æłĩæĺ¯": 8337,
      "åıĳæĢ§": 8338,
      "å·²æĪĲä¸º": 8339,
      "è¿Ļå¯¹": 8340,
      "è¾ĥå°ı": 8341,
      "æľĪçļĦ": 8342,
      "å®¢æĪ·éľĢæ±Ĥ": 8343,
      "ç»ĵçŁ³": 8344,
      "å¦ĤæŀľéľĢè¦ģ": 8345,
      "éĿ¢éĥ¨": 8346,
      "([": 8347,
      "çĮĽ": 8348,
      "åı¯è§ģ": 8349,
      "ç¿¼": 8350,
      "è®¾å¤ĩåĴĮ": 8351,
      "çĶµåĬ¨æ±½è½¦": 8352,
      "ä¸İæŃ¤": 8353,
      "æĸĩç«łçļĦ": 8354,
      "old": 8355,
      "åİŁåĳĬ": 8356,
      "çļĦçľŁå®ŀ": 8357,
      "ä¸ĬåįĪ": 8358,
      "37": 8359,
      "çłĶç©¶åĴĮ": 8360,
      "å¤´éĥ¨": 8361,
      "è¯´éģĵ": 8362,
      "çļĦç¼º": 8363,
      "æī¾åĪ°ä¸Ģä¸ª": 8364,
      "ody": 8365,
      "ï¼ļ'": 8366,
      "åĴĮçłĶç©¶": 8367,
      "ä¸īè§Ĵå½¢": 8368,
      "è¿ĲåĬ¨åĴĮ": 8369,
      "And": 8370,
      "å¢ŀå¤ļ": 8371,
      "æĸĻéħĴ": 8372,
      "tml": 8373,
      "Ġwork": 8374,
      "æĪĳæĥ³è¦ģ": 8375,
      "ä¾¿ç§ĺ": 8376,
      "æ´»åĬ¨åĴĮ": 8377,
      "atic": 8378,
      "æĺĨèĻ«": 8379,
      "True": 8380,
      "çļĦçģ«": 8381,
      "rid": 8382,
      "æŁ´": 8383,
      "æŀģå¤§çļĦ": 8384,
      "çº½çº¦å¸Ĥ": 8385,
      "hello": 8386,
      "çļĦåŃĺåľ¨": 8387,
      "æķ°ç»Ħä¸Ń": 8388,
      "df": 8389,
      "è¡¬": 8390,
      "åĩĮ": 8391,
      "åı¯ä»¥ä¿ĥè¿Ľ": 8392,
      "è¿Ļå°ĨæľīåĬ©äºİ": 8393,
      "å¤ĦçĲĨåĴĮ": 8394,
      "å¿ħè¦ģæĹ¶": 8395,
      "Ġsort": 8396,
      "89": 8397,
      "Ġbut": 8398,
      "çļĦåŃ¦çĶŁ": 8399,
      "SON": 8400,
      "çªĹæĪ·": 8401,
      "æīģæ¡ĥ": 8402,
      "å°ıé¸Ł": 8403,
      "èĩŃ": 8404,
      "éĩįè¦ģä½ľçĶ¨": 8405,
      "èĨ¨": 8406,
      "åĮĸçŁ³çĩĥæĸĻ": 8407,
      "åı¯ä¿¡": 8408,
      "åľ¨å®¶ä¸Ń": 8409,
      "é¬¼": 8410,
      ">>": 8411,
      "çļĦæľīæķĪ": 8412,
      "çĤ¹åĴĮ": 8413,
      "æ±Ĥè§£": 8414,
      "åıĳçİ°èĩªå·±": 8415,
      "Ġnumber": 8416,
      "Lucas": 8417,
      "çļĦå¥½å¤Ħ": 8418,
      "æ¢³": 8419,
      "çļĦç¡®": 8420,
      "çľĭæĿ¥": 8421,
      "å¯¹è¯Ŀä¸Ń": 8422,
      "åĨħæ¶µ": 8423,
      "å¹¶è¾ĵåĩº": 8424,
      "æĻºèĥ½æīĭè¡¨": 8425,
      "æľ¬æ¬¡": 8426,
      "å¤ªéĺ³çļĦ": 8427,
      "file": 8428,
      "ä¸įè¶ħè¿ĩ": 8429,
      "èµ·åĪ°": 8430,
      "éĢīæīĭ": 8431,
      "âĢĺ": 8432,
      "åķĨä¸ļæ¨¡å¼ı": 8433,
      "Ġ11": 8434,
      "ian": 8435,
      "äº¤éĢļå·¥åħ·": 8436,
      "åıĳè§ī": 8437,
      "åĻ¨æĿĲ": 8438,
      "pred": 8439,
      "åĩ½æķ°ä¸Ń": 8440,
      "è¦ģä¿ĿæĮģ": 8441,
      "åĨ°å·Ŀ": 8442,
      "æĩĪ": 8443,
      "åı¯ä»¥è¿Ľè¡Į": 8444,
      "ç¢³æ°´åĮĸåĲĪçī©": 8445,
      "åĪĩæĪĲå°ıåĿĹ": 8446,
      "è¡¡éĩı": 8447,
      "çļĦæĢģåº¦": 8448,
      "æĪĳå°±": 8449,
      "ĠFalse": 8450,
      "éĢīæĭ©éĢĤåĲĪèĩªå·±çļĦ": 8451,
      "åĪ¤åĨ³": 8452,
      "æĮ¡": 8453,
      "çķªèĮĦéħ±": 8454,
      "å¸ĥç½®": 8455,
      "ert": 8456,
      "PI": 8457,
      "äº¿ç¾İåħĥ": 8458,
      "ç²¾åº¦": 8459,
      "ä¹īåĬ¡": 8460,
      "èĢĲå¿ĥåĴĮ": 8461,
      "çļĦçı": 8462,
      "Ġmain": 8463,
      "ä¹ĺæ³ķ": 8464,
      "è¢«èªīä¸º": 8465,
      "æĶ¹åĨĻ": 8466,
      "æ¸Ĳæ¸Ĳ": 8467,
      "ä½łåºĶè¯¥": 8468,
      "çĶµåŃĲäº§åĵģ": 8469,
      "çļĦçł´åĿı": 8470,
      "èĥ½ä¸įèĥ½": 8471,
      "èµ°åĲĳ": 8472,
      "åħĪè¿ĽçļĦ": 8473,
      "åºŀ": 8474,
      "æıĲä¾ĽæĽ´å¤ļçļĦ": 8475,
      "å¢ŀæ·»": 8476,
      "å´ĩ": 8477,
      "äº§æĿĥ": 8478,
      "çİ¯å¢ĥéĹ®é¢ĺ": 8479,
      "åģļåĩºè´¡çĮ®": 8480,
      "æ·±å¤Ħ": 8481,
      "çĸ¹": 8482,
      "æ²¡æľīä»»ä½ķ": 8483,
      "66": 8484,
      "è§ĤçĤ¹åĴĮ": 8485,
      "å¤´èĦĳé£İæļ´": 8486,
      "é¢ľèī²çļĦ": 8487,
      "Ġä¸į": 8488,
      "ames": 8489,
      "sub": 8490,
      "sp": 8491,
      "éŀĭåŃĲ": 8492,
      "è¿Ļä¸ĢçĤ¹": 8493,
      "ics": 8494,
      "ape": 8495,
      "æ¶µçĽĸäºĨ": 8496,
      "çĭ®åŃĲ": 8497,
      "æ´ªæ°´": 8498,
      "èįīåİŁ": 8499,
      "ä¸»è¦ģåĮħæĭ¬": 8500,
      "æĢĸ": 8501,
      "Ġvalue": 8502,
      "åı¯ä»¥éĩĩåıĸ": 8503,
      "ä½łæľīæ²¡æľī": 8504,
      "åħ¶ä¸Ńä¸Ģä¸ª": 8505,
      "æĸ¹æ³ķæĺ¯": 8506,
      "æııè¿°ä¸Ģä¸ĭ": 8507,
      "çģĮ": 8508,
      "åĪĽå§ĭ": 8509,
      "Ġ13": 8510,
      "æĪ¿åŃĲ": 8511,
      "ä¸ªæ©ĻåŃĲ": 8512,
      "çħ§çīĩ": 8513,
      "è¼": 8514,
      "ä»¥è¾¾åĪ°": 8515,
      "èĤĿèĦı": 8516,
      "ç»Ĩèħ»": 8517,
      "çĸ¾": 8518,
      "è¿ĩæĭŁåĲĪ": 8519,
      "Ġå½ĵ": 8520,
      "åŁİå¸Ĥè§ĦåĪĴ": 8521,
      "æ¯Ķåĸ»": 8522,
      "ä¿¡ä»»åĴĮ": 8523,
      "è¿ľç¦»": 8524,
      "åħħåĪĨçļĦ": 8525,
      "ä¸ºäººç±»": 8526,
      "mon": 8527,
      "çļĦæľĢä½³": 8528,
      "å¯¹åºĶ": 8529,
      "ä½łåı¯ä»¥ä½¿çĶ¨": 8530,
      "ç®ĢçŁŃçļĦ": 8531,
      "æĹ¶éĹ´åĴĮç²¾åĬĽ": 8532,
      "ï¼ĮãĢĬ": 8533,
      "çļĦçģ¯": 8534,
      "äººä»¬åľ¨": 8535,
      "];": 8536,
      "åģ¥åº·éĹ®é¢ĺ": 8537,
      "å¸®å¿Ļ": 8538,
      "node": 8539,
      "æĢ§éĹ®é¢ĺ": 8540,
      "åĴĮæķĻèĤ²": 8541,
      "æĵļ": 8542,
      "éħ·": 8543,
      "çģ«çģ¾": 8544,
      "èĢ³æľµ": 8545,
      "ä¼Łå¤§çļĦ": 8546,
      "è¾¹çļĦ": 8547,
      "å®¢è§Ĥ": 8548,
      "éķ¿åŁİ": 8549,
      "order": 8550,
      "èĭ±å°º": 8551,
      "æĿ¥å¤ĦçĲĨ": 8552,
      "rror": 8553,
      "åĽ¾è¡¨": 8554,
      "æĪĳä»¬æŃ£åľ¨": 8555,
      "å¦Ĥæŀľæ²¡æľī": 8556,
      "Ġkey": 8557,
      "çŃīçº§": 8558,
      "æĶ¶èİ·": 8559,
      "æķ´æ´ģ": 8560,
      "ä¿®æŃ£": 8561,
      "pple": 8562,
      "è´«åĽ°": 8563,
      "ä»¬çļĦ": 8564,
      "ä¼ļä¸įä¼ļ": 8565,
      "æŀª": 8566,
      "åıĮæīĭ": 8567,
      "èĮ¯": 8568,
      "éķ¿æľŁçļĦ": 8569,
      "çĩķéº¦": 8570,
      "è¯¥æĢİä¹ĪåĬŀ": 8571,
      "äººèĦ¸": 8572,
      "æĭĸå»¶": 8573,
      "è§Ĩè§īæķĪæŀľ": 8574,
      "éĥ½åºĶè¯¥": 8575,
      "çļĦé£İæł¼": 8576,
      "Ġsp": 8577,
      "éĻ·åħ¥": 8578,
      "æĿĥéĩį": 8579,
      "åĲĳæĤ¨": 8580,
      "åĲ¬åıĸ": 8581,
      "è®¡æķ°": 8582,
      "Ġfunction": 8583,
      "ä¸Ģæ¬¡æĢ§": 8584,
      "Ġvoid": 8585,
      ").": 8586,
      "æĻļæľŁ": 8587,
      "åŃ¦éĻ¢": 8588,
      "çĽ¸åħ³ä¿¡æģ¯": 8589,
      "è¯Ĺäºº": 8590,
      "åĨħåľ¨": 8591,
      "ç»ĵå°¾": 8592,
      "ä½ĽæķĻ": 8593,
      "çľĭå¾ħ": 8594,
      "é«ĺæķĪåľ°": 8595,
      "å¯¹ç¤¾ä¼ļ": 8596,
      "æĶ¶åĪ°": 8597,
      "Ġ200": 8598,
      "åĴĮè°ĥæķ´": 8599,
      "æĺ¥èĬĤ": 8600,
      "Ġtheir": 8601,
      "yn": 8602,
      "éĹ®åį·": 8603,
      "æ»¥": 8604,
      "æīĭåĬ¨": 8605,
      "åĪ«äººçļĦ": 8606,
      "ä¸įæĥ³": 8607,
      "è¡¨æĥħ": 8608,
      "pos": 8609,
      "now": 8610,
      "ç²¥": 8611,
      "è¿ĻäºĽåĽłç´ł": 8612,
      "æļĹç¤º": 8613,
      "ä¸Ģåº§": 8614,
      "æ©¡": 8615,
      "array": 8616,
      "æľīæľºä¼ļ": 8617,
      "æ¼Ĩ": 8618,
      "ä½¿åħ¶æĽ´åĬł": 8619,
      "èĮ¯èĭĵ": 8620,
      "Ġstart": 8621,
      "åĩıè½»åİĭåĬĽ": 8622,
      "å¤¸": 8623,
      "è®©æĤ¨": 8624,
      "æĿ¥é¢Ħæµĭ": 8625,
      "æľĢç»ĪçļĦ": 8626,
      "å®ĥä»¬ä¹ĭéĹ´çļĦ": 8627,
      "æ©Ł": 8628,
      "åŁºäºİä»¥ä¸Ĭ": 8629,
      "è§Ĩè§Ĵ": 8630,
      "ä¸»æĮģ": 8631,
      "æ·±åħ¥äºĨè§£": 8632,
      "éĿĴæĺ¥": 8633,
      "è¿Ļåı¯ä»¥éĢļè¿ĩ": 8634,
      "[]": 8635,
      "An": 8636,
      "çº¢éħĴ": 8637,
      "sorted": 8638,
      "ç¨ĭåº¦ä¸Ĭ": 8639,
      "è½¬æį¢æĪĲ": 8640,
      "ude": 8641,
      "å¤ĸæĺŁ": 8642,
      "å¾Īé«ĺ": 8643,
      "ç©ºæ°Ķæ±¡æŁĵ": 8644,
      "æĬļ": 8645,
      "æĹ¥åŃĲ": 8646,
      "å¼ķèµ·äºĨ": 8647,
      "åħĭæĸ¯": 8648,
      "çļĦç¿": 8649,
      "ä¸»é¢ĺçļĦ": 8650,
      "èıł": 8651,
      "ï¼ļï¼Ī": 8652,
      "æĽ´åĬłæ³¨éĩį": 8653,
      "çİ°çĬ¶": 8654,
      "éŁ³ä¹ĲåĴĮ": 8655,
      "åĽŀåºĶ": 8656,
      "è¯·æıĲä¾Ľ": 8657,
      "å®ħ": 8658,
      "è¯·æķĻ": 8659,
      "æĳĦæ°ıåº¦": 8660,
      "èµµ": 8661,
      "æ¼Ķåĩº": 8662,
      "å®ĮæĪĲäºĨ": 8663,
      "ä¸Ĭæĸĩ": 8664,
      "ä¼ĺç¾İ": 8665,
      "é¥²": 8666,
      "åı¯ä»¥è®©ä½ł": 8667,
      "Ġwill": 8668,
      "æ¨¡åŀĭçļĦæĢ§èĥ½": 8669,
      "ä»İèĢĮåĩıå°ĳ": 8670,
      "æĥ©ç½ļ": 8671,
      "æĸ½å·¥": 8672,
      "ç»§æī¿": 8673,
      "èĬ½": 8674,
      "æģĲæĢĸ": 8675,
      "æĺ¯å¯¹": 8676,
      "æİ¨ç§»": 8677,
      "éĢĤåĲĪèĩªå·±çļĦ": 8678,
      "éĶĭ": 8679,
      "Ġæµĭè¯ķ": 8680,
      "è®²è¿°äºĨä¸Ģä¸ª": 8681,
      "æľĢä¼ĺ": 8682,
      "åŃĺåľ¨çĿĢ": 8683,
      "åįĪé¤Ĳ": 8684,
      "äºĨä¸Ģç³»åĪĹ": 8685,
      "js": 8686,
      "çļĦç´§": 8687,
      "åĽ°æĥĳ": 8688,
      "æ¡ĮåŃĲ": 8689,
      "æ²¹èħ»": 8690,
      "å·¥åİĤ": 8691,
      "åħ¨çĲĥæ°ĶåĢĻåıĺåĮĸ": 8692,
      "ä¸ºå®¢æĪ·": 8693,
      "number": 8694,
      "Ġreverse": 8695,
      "åįķçĭ¬": 8696,
      "æ´Ĵ": 8697,
      "å°±ä¸ļæľºä¼ļ": 8698,
      "å»ºæ¨¡": 8699,
      "æľ´ç´ł": 8700,
      "éĶĻè¯¯çļĦ": 8701,
      "åħīåĲĪ": 8702,
      "å¥³åĦ¿": 8703,
      "èļģ": 8704,
      "åĪĩç¢İ": 8705,
      "å¤±è°ĥ": 8706,
      "æľºåľº": 8707,
      "å¤ļæł·åĮĸ": 8708,
      "120": 8709,
      "èĲİ": 8710,
      "åİīå®³": 8711,
      "éĿłè¿ĳ": 8712,
      "éļıçĿĢæĹ¶éĹ´çļĦ": 8713,
      "æŀģåħ¶": 8714,
      "ç³ľçĥĤ": 8715,
      "æł½": 8716,
      "Ġlike": 8717,
      "èŀįåĮĸ": 8718,
      "ä¹ĻèĤĿ": 8719,
      "å»ºè®®åľ¨": 8720,
      "æīĭçİ¯": 8721,
      "å¤ļå°ĳéĴ±": 8722,
      "rand": 8723,
      "è®©è®¡ç®Ĺæľº": 8724,
      "åľ¨ä¸įåĲĮçļĦ": 8725,
      "èĭ±å¯¸": 8726,
      "æĺ¯åĲ¦éľĢè¦ģ": 8727,
      "çļĦåĴĮ": 8728,
      "è¿ĩå¤ļçļĦ": 8729,
      "åĪĨå¸ĥå¼ı": 8730,
      "ä¸ŃçļĦæīĢæľī": 8731,
      "ç¼Ģ": 8732,
      "ä¸¤æ¬¡": 8733,
      "å¹¶çĶ¨": 8734,
      "åī©ä¸ĭçļĦ": 8735,
      "actor": 8736,
      "å¸Ĥåľºè¶ĭåĬ¿": 8737,
      "åĪºæ¿ĢæĢ§é£Łçī©": 8738,
      "ä¸ºåħ¬åı¸": 8739,
      "Ġabout": 8740,
      "è¥¿çıŃ": 8741,
      "è¥¿çıŃçīĻ": 8742,
      "ä»İèĢĮå®ŀçİ°": 8743,
      "èĮ«": 8744,
      "ä»£çłģçļĦ": 8745,
      "çļĦçİ°è±¡": 8746,
      "è¯Ńæ³ķåĴĮ": 8747,
      "ä»ħä»ħ": 8748,
      "èģĶçĽŁ": 8749,
      "æł·å¼ı": 8750,
      "æľĢä¸º": 8751,
      "æĹħæ¸¸æĻ¯çĤ¹": 8752,
      "éĿŀå¸¸æĦŁè°¢æĤ¨çļĦ": 8753,
      "åı¯åı£": 8754,
      "æł¹æį®é¢ĺçĽ®": 8755,
      "åĽ¢éĺŁåįıä½ľ": 8756,
      "åı¯ä»¥è¿½æº¯åĪ°": 8757,
      "åķ¤": 8758,
      "çļĦçĻ½": 8759,
      "èħ¹æ³»": 8760,
      "æĪĳåĴĮ": 8761,
      "Ġtotal": 8762,
      "è¿Ĳä½ľ": 8763,
      "åŃ£åº¦": 8764,
      "å¹´åº¦": 8765,
      "Ġä»İ": 8766,
      "é«ĺä¸Ń": 8767,
      "å¥³åŃĲ": 8768,
      "åĪĩçīĩ": 8769,
      "éĺ´éģĵçĤİ": 8770,
      "åħ»æĬ¤": 8771,
      "æĪĸèĢħæĸ¹åīĤ": 8772,
      "åıĬæĹ¶æ²»çĸĹ": 8773,
      "è¯ĨåĪ«åĩº": 8774,
      "å°ĬéĩįåĴĮ": 8775,
      "Ġ16": 8776,
      "èĩ³ä»Ĭ": 8777,
      "åľĨçļĦ": 8778,
      "æīĢæľīäºº": 8779,
      "');": 8780,
      "ix": 8781,
      "éĩĳé»Ħèī²": 8782,
      "ä»¥ä¸ĭæĺ¯ä¸Ģæ®µ": 8783,
      "iew": 8784,
      "Num": 8785,
      "çļĦå°ıè¯´": 8786,
      "äºĽä»Ģä¹Ī": 8787,
      "åĨľæ°ĳ": 8788,
      "CEO": 8789,
      "head": 8790,
      "ä¸¥æł¼çļĦ": 8791,
      "éĽ¶é£Ł": 8792,
      "åı¯éĿłçļĦ": 8793,
      "è¿ĺåľ¨": 8794,
      "izer": 8795,
      "åĪĿæŃ¥": 8796,
      "æ½ľåľ¨çļĦ": 8797,
      "éĢļå¸¸éľĢè¦ģ": 8798,
      "å¥ĩæĢª": 8799,
      "éģĵå¾·åĴĮ": 8800,
      "æŃ¦åĻ¨": 8801,
      "åĽ°æī°": 8802,
      "ä¸įç®¡": 8803,
      "ä¸Ńç«ĭ": 8804,
      "æ¯Ķäºļ": 8805,
      "Ġå¤ļ": 8806,
      "é¡¾éĹ®": 8807,
      "å¤§è±¡": 8808,
      "è£¹": 8809,
      "å¿ħéľĢ": 8810,
      "ä¼´ä¾£": 8811,
      "ç²¾èĩ´": 8812,
      "åĤ¨èĵĦ": 8813,
      "çļĦæĬĢå·§": 8814,
      "æĽ´å¤§": 8815,
      "ä¹ĺåĿĲ": 8816,
      "åįıåķĨ": 8817,
      "åĬłå¤§": 8818,
      "èľľèľĤ": 8819,
      "èĪĩ": 8820,
      "ä¹ĺç§¯": 8821,
      "å¸ĤåľºéľĢæ±Ĥ": 8822,
      "ç½ĳé¡µ": 8823,
      "âĢ¢": 8824,
      "æ¾¡": 8825,
      "ä¼ŀ": 8826,
      "âĢĿï¼Ī": 8827,
      "attern": 8828,
      "123": 8829,
      "è£ħç½®": 8830,
      "ç¡¬åĮĸ": 8831,
      "æĢĢçĸĳ": 8832,
      "åºĶæĢ¥": 8833,
      "åı¯ä»¥å¸®åĬ©åĮ»çĶŁ": 8834,
      "æķ°æĺ¯": 8835,
      "è·ŁæĪĳ": 8836,
      "ents": 8837,
      "éĢļè®¯": 8838,
      "å°ĨæĪĲä¸º": 8839,
      "éĢļå¸¸çĶ¨äºİ": 8840,
      "éļĲç§ģåĴĮå®īåħ¨": 8841,
      "æ³¨å°Ħ": 8842,
      "èĮ¶åĮĻ": 8843,
      "ĠæĪĳè®¤ä¸º": 8844,
      "æŀ£": 8845,
      "æľīä¸Ģå¤©": 8846,
      "èħĮ": 8847,
      "Ġmore": 8848,
      "å¤±æľĽ": 8849,
      "è¯ŀ": 8850,
      "user": 8851,
      "çłĶç©¶äººåĳĺ": 8852,
      "æłı": 8853,
      "çĽ¸å¤Ħ": 8854,
      "çļĦæ¸¸æĪı": 8855,
      "ä»¥ä¿Ŀè¯ģ": 8856,
      "è°ĪåĪ¤": 8857,
      "ä»ĵ": 8858,
      "å°ĳåĲĥ": 8859,
      "Ġ__": 8860,
      "åķ¤éħĴ": 8861,
      "Ġid": 8862,
      "ool": 8863,
      "åĲ¬ä¼Ĺ": 8864,
      "ä½łåı¯ä»¥åľ¨": 8865,
      "è¿ĺæľīå¾Īå¤ļ": 8866,
      "åĴĮåĨ³çŃĸ": 8867,
      "æº¶æ¶²": 8868,
      "çĦ¦èĻĳåĴĮ": 8869,
      "éĺ²æĻĴ": 8870,
      "æĬ½åıĸ": 8871,
      "çīĩæ®µ": 8872,
      "çº§åĪ«": 8873,
      "åĲĦä¸ªé¢ĨåŁŁ": 8874,
      "ensor": 8875,
      "å®ŀä½ĵè¯ĨåĪ«": 8876,
      "æ¯¯": 8877,
      "èĨ¨èĥĢ": 8878,
      "éĩĩéĽĨ": 8879,
      "éĢĿ": 8880,
      "å¼ĢæĶ¯": 8881,
      "Id": 8882,
      "éĢ¼": 8883,
      "ä¹ĺå®¢": 8884,
      "æİ¨èįĲä¸Ńèį¯æĪĸèĢħæĸ¹åīĤ": 8885,
      "ä¸ºä»¥ä¸ĭ": 8886,
      "é¢Ĩè¢ĸ": 8887,
      "æ¹¾": 8888,
      "ä»ĩ": 8889,
      "èŁ": 8890,
      "åı¯ä»¥ç¼ĵè§£": 8891,
      "å½Ĵçº³": 8892,
      "mer": 8893,
      "ues": 8894,
      "èĢĮéĿŀ": 8895,
      "çļĦç¤¼": 8896,
      "çļĦè§Ĵèī²": 8897,
      "éĤ£æł·": 8898,
      "æľĢèĳĹåĲįçļĦ": 8899,
      "åĴĮæİ§åĪ¶": 8900,
      "åĮĸåŃ¦çī©è´¨": 8901,
      "è¯·å¸®æĪĳæİ¨èįĲä¸Ńèį¯æĪĸèĢħæĸ¹åīĤ": 8902,
      "å¤ªå¥½äºĨ": 8903,
      "åįłæį®": 8904,
      "çļĦæĹ¶éĹ´åĴĮ": 8905,
      "åłµå¡ŀ": 8906,
      "éĢłåŀĭ": 8907,
      "çģ°èī²": 8908,
      "åºĶè¯¥åľ¨": 8909,
      "->": 8910,
      "æ¨¡ç³Ĭ": 8911,
      "å¹¸ç¦ıæĦŁ": 8912,
      "æĢ»åħ±": 8913,
      "æ´»è·ĥ": 8914,
      "çī¹å¾ģæıĲåıĸ": 8915,
      "æ¿ĢåĬ¨": 8916,
      "na": 8917,
      "çıĬ": 8918,
      "çļĦä¸Ģä¸ªéĩįè¦ģ": 8919,
      "åı¯èĥ½æĽ´": 8920,
      "åĴ¬": 8921,
      "çľŁçļĦå¾Ī": 8922,
      "é¢ľèī²åĴĮ": 8923,
      "æĸ°æīĭ": 8924,
      "åı¯èĥ½å¯¹": 8925,
      "åĩºæĿ¥çļĦ": 8926,
      "è§ģéĿ¢": 8927,
      "ç¬¼": 8928,
      "åĶĩ": 8929,
      "éĥ¨ä»¶": 8930,
      "æŀģç«¯å¤©æ°Ķ": 8931,
      "çī¢": 8932,
      "Ġdis": 8933,
      "è¿Ľè¡ĮåĪĨæŀĲ": 8934,
      "åĩłä½ķ": 8935,
      "æ·ĺ": 8936,
      "gest": 8937,
      "éķ¿åº¦ä¸º": 8938,
      "éĺ²å¾¡": 8939,
      "ä¼°è®¡": 8940,
      "çĶŁå§ľ": 8941,
      "åħĦå¼Ł": 8942,
      "åı¯ä»¥å¢ŀå¼º": 8943,
      "ç©¿è¿ĩ": 8944,
      "å¼¥": 8945,
      "ç³»ç»ŁåĴĮ": 8946,
      "çŃīæĸ¹æ³ķ": 8947,
      "èĤºçĻĮ": 8948,
      "éª¨éª": 8949,
      "æīĭå·¥èīº": 8950,
      "äºĭåĬ¡": 8951,
      "ses": 8952,
      "çĨŁç»ĥ": 8953,
      "å¥½åıĭ": 8954,
      "æŀ¯": 8955,
      "é¤Ĳåħ·": 8956,
      "èµĦæľ¬": 8957,
      "é»Ħçĵľ": 8958,
      "ä¸įåıĺ": 8959,
      "åĨĴæ³¡": 8960,
      "ough": 8961,
      "èĦĵ": 8962,
      "è·³è·ĥ": 8963,
      "çĪĨçĤ¸": 8964,
      "è¯Ńè¨ĢçļĦ": 8965,
      "å®¶åºŃçļĦ": 8966,
      "æ½ľåľ¨å®¢æĪ·": 8967,
      "åĺī": 8968,
      "äºĨè§£èĩªå·±çļĦ": 8969,
      "ä¸Ĭè¿Ľè¡Į": 8970,
      "ä¸¤äººçļĦ": 8971,
      "TP": 8972,
      "çľĭè§ģ": 8973,
      "è´ŁåĢº": 8974,
      "å¥³å£«": 8975,
      "ä»¥ä¾¿åľ¨": 8976,
      "åĴĸåķ¡è±Ĩ": 8977,
      "AN": 8978,
      "æīģæ¡ĥä½ĵ": 8979,
      "äººç±»æĻºèĥ½": 8980,
      "ä¸Ģä¸ªéĹ®é¢ĺ": 8981,
      "éĿŀå¸¸æĦŁè°¢ä½łçļĦ": 8982,
      "è¢«å¹¿æ³ĽåºĶçĶ¨äºİ": 8983,
      "èĲ¥åħ»æĪĲåĪĨ": 8984,
      "èĭ±éĩĮ": 8985,
      "cond": 8986,
      "å¤ªç©ºæİ¢ç´¢": 8987,
      "ä¸»è¯Ń": 8988,
      "Ġover": 8989,
      "è´¾å®Ŀçİī": 8990,
      "åĵĳ": 8991,
      "æīĢå¾Ĺ": 8992,
      "åĲĦç§įåĲĦ": 8993,
      "èµĶåģ¿": 8994,
      "èİ²": 8995,
      "çļĦæµ·": 8996,
      "ä½łè¦ģ": 8997,
      "ä¸ºæŃ¢": 8998,
      "åĴĮæĶ¾æĿ¾": 8999,
      "æ¸©åĴĮ": 9000,
      "åĪĩéĻ¤": 9001,
      "Element": 9002,
      "Ġpos": 9003,
      "éĵ¾è¡¨": 9004,
      "æ°®": 9005,
      "ç´¢å¼ķ": 9006,
      "ä¸įæĸŃçļĦ": 9007,
      "æľĢéĩįè¦ģçļĦæĺ¯": 9008,
      "åĲ¸å¼ķäºĨ": 9009,
      "æįķæįī": 9010,
      "èĦ¾èĥĥ": 9011,
      "ç¢Į": 9012,
      "çļĦä¸Ń": 9013,
      "æ£µ": 9014,
      "æ±ĤèģĮ": 9015,
      "èĥ½æºĲæ¶ĪèĢĹ": 9016,
      "æĽ²çº¿": 9017,
      "æł¡åĽŃ": 9018,
      "æ³¨æĦıåĪ°": 9019,
      "ç¼ĸåĨĻä¸Ģç¯ĩ": 9020,
      "è®©è¯»èĢħ": 9021,
      "éī´åĪ«": 9022,
      "æĿ¡ä»¶ä¸ĭ": 9023,
      "ä¸įå¦Ĥ": 9024,
      "è®©å®ĥ": 9025,
      "éħ®": 9026,
      "åĢ¾åĲĳäºİ": 9027,
      "42": 9028,
      "æĺ¯ç¾İåĽ½": 9029,
      "è®¾ç«ĭ": 9030,
      "èĩªå®ļä¹ī": 9031,
      "æ²¿çĿĢ": 9032,
      "è°¢è°¢æĤ¨çļĦ": 9033,
      "ä»ĸå¯¹": 9034,
      "å°ĩ": 9035,
      "æĿī": 9036,
      "ç³»ç»Łä¸Ń": 9037,
      "ansl": 9038,
      "ä¸Ĭåİ»": 9039,
      "æľºåĻ¨åŃ¦ä¹łæĬĢæľ¯": 9040,
      "æľªæĿ¥çļĦåıĳå±ķ": 9041,
      "èº«å¿ĥåģ¥åº·": 9042,
      "æ²®": 9043,
      "ĠĠĠĠĠ": 9044,
      "éĩįè¦ģçļĦä½ľçĶ¨": 9045,
      "æĺ¯ä¸ĸçķĮä¸ĬæľĢ": 9046,
      "å®ĭ": 9047,
      "åŁºåĩĨ": 9048,
      "å¾ħéģĩ": 9049,
      "è±ªåįİ": 9050,
      "æĤ²ä¼¤": 9051,
      "led": 9052,
      "æĺŁæĺŁ": 9053,
      "çŃīåĬŁèĥ½": 9054,
      "Ġå¢ŀåĬł": 9055,
      "ç©ĨæľĹ": 9056,
      "å®¶ä¸Ń": 9057,
      "ä¸įèĥ½å¤Ł": 9058,
      "è§ĴèĲ½": 9059,
      "æĥĬåĸľ": 9060,
      "ä½İäºİ": 9061,
      "èµİ": 9062,
      "éĿ¢æĸĻ": 9063,
      "åı¯ä»¥åĪĨä¸º": 9064,
      "è¿ĩéķ¿": 9065,
      "æĹ©æĻ¨": 9066,
      "é¤ĲåİħçļĦ": 9067,
      "çĶµåĬĽ": 9068,
      "ç©ĨæľĹçİĽ": 9069,
      "å¥¹åľ¨": 9070,
      "è¡Įç¨ĭ": 9071,
      "å¯¹æĬĹ": 9072,
      "Ġhis": 9073,
      "è¿ĻéľĢè¦ģ": 9074,
      "èĪŀåı°": 9075,
      "ings": 9076,
      "èŀįèµĦ": 9077,
      "å¹¿åľº": 9078,
      "åĬłåħ¥ä¸ĢäºĽ": 9079,
      "åĩ½æķ°å°Ĩ": 9080,
      "Ġro": 9081,
      "éĢĤåºĶæĢ§": 9082,
      "åĩıæ³ķ": 9083,
      "riv": 9084,
      "å¿ĥçİĩ": 9085,
      "é¦ĸåħĪè¦ģ": 9086,
      "è°ĥè¯ķ": 9087,
      "ram": 9088,
      "åıĶ": 9089,
      "æĪĳå¾Īé«ĺåħ´": 9090,
      "æ£ĢéªĮ": 9091,
      "éĿĴå¹´": 9092,
      "å¥ĩæķ°": 9093,
      "æ°Ķä½ĵçļĦ": 9094,
      "ä¸Ģå±Ĥ": 9095,
      "ãĢĤï¼Ī": 9096,
      "æĿ¥éĢīæĭ©": 9097,
      "æĿ¥åĩıå°ĳ": 9098,
      "è¯·éļıæĹ¶": 9099,
      "å¼¹æĢ§": 9100,
      "ä¸įå½ĵ": 9101,
      "è¯ķçĿĢ": 9102,
      "æĮĩå®ļçļĦ": 9103,
      "éª¨éª¼": 9104,
      "ä¸ĢåĲįå¹´è½»çļĦ": 9105,
      "è¯¥å¦Ĥä½ķ": 9106,
      "æĬķè¯ī": 9107,
      "ç¼©çŁŃ": 9108,
      "YY": 9109,
      "æĽ´åĩĨç¡®åľ°": 9110,
      "ultiply": 9111,
      "å¹²é¢Ħ": 9112,
      "çºłçº·": 9113,
      "éģŃåıĹ": 9114,
      "æŀľæ±ģ": 9115,
      "å®¶åĴĮ": 9116,
      "èĻ¹": 9117,
      "ĠãĢĤ": 9118,
      "æľ±": 9119,
      "è¿ĻéĩĮçļĦ": 9120,
      "ç»ĻæĪĳä¸ĢäºĽ": 9121,
      "æ¸¡": 9122,
      "æħĮ": 9123,
      "orus": 9124,
      "te": 9125,
      "è¿ĩç¨ĭä¸ŃçļĦ": 9126,
      "æ¶Īè´¹èĢħçļĦ": 9127,
      "çļĦå¤ĸ": 9128,
      "ä»¥éĢĤåºĶ": 9129,
      "çļĦçľ¼çĿĽ": 9130,
      "éĴĵ": 9131,
      "åĢĻéĢī": 9132,
      "èĻļåģĩ": 9133,
      "æ®¿": 9134,
      "èĥĮæĻ¯åĴĮ": 9135,
      "æĺ¯åŁºäºİ": 9136,
      "æĶ¿çŃĸåĴĮ": 9137,
      "åīĬ": 9138,
      "å®¢æ°Ķ": 9139,
      "è¤": 9140,
      "ä¸įæĸŃè¿ĽæŃ¥": 9141,
      "85": 9142,
      "å±¥": 9143,
      "è¯ŃéŁ³åĬ©æīĭ": 9144,
      "Ġbreak": 9145,
      "åĴĸåķ¡åĽł": 9146,
      "æľ¬äºº": 9147,
      "éĻĲäºİ": 9148,
      "å¹¶å°Ĩå®ĥä»¬": 9149,
      "å°ĳæķ°": 9150,
      "è¢«çĶ¨äºİ": 9151,
      "å£¶": 9152,
      "acebook": 9153,
      "æ²®ä¸§": 9154,
      "å¡«åħħ": 9155,
      "å®ŀéĻħåºĶçĶ¨ä¸Ń": 9156,
      "oph": 9157,
      "æ¢¯åº¦": 9158,
      "äººå·¥æĻºèĥ½çļĦåºĶçĶ¨": 9159,
      "åı¯æĮģç»ŃçļĦ": 9160,
      "éĢīè´Ń": 9161,
      "å¸®åĬ©äººä»¬": 9162,
      "ouble": 9163,
      "ĠWorld": 9164,
      "çĺ«": 9165,
      "çĮľæµĭ": 9166,
      "æ´ĹåĩĢ": 9167,
      "æķ°éĩıçļĦ": 9168,
      "ç¥Ľ": 9169,
      "è¥¿çĵľ": 9170,
      "æ°´èµĦæºĲ": 9171,
      "ä¸ĢåĢĭ": 9172,
      "è¿ĻæĹ¶åĢĻ": 9173,
      "Ġ```": 9174,
      "ä¸įåľ¨": 9175,
      "ç¼ł": 9176,
      "è§£åĨ³è¿Ļä¸ªéĹ®é¢ĺ": 9177,
      "åĢºåĪ¸": 9178,
      "Ġper": 9179,
      "TF": 9180,
      "init": 9181,
      "å±Ī": 9182,
      "åĬªåĬĽåĴĮ": 9183,
      "iel": 9184,
      "çļĦç®Ĺæ³ķ": 9185,
      "çıłç©ĨæľĹçİĽ": 9186,
      "çļĦåŃĹç¬¦ä¸²": 9187,
      "å¯¹æĪĳä»¬çļĦ": 9188,
      "å¹¼åĦ¿": 9189,
      "Ġ&": 9190,
      "çīĻé½¿": 9191,
      "éĥ½æľīçĿĢ": 9192,
      "æķĻåłĤ": 9193,
      "ĠåĪĽå»º": 9194,
      "åĳĬè¯īæĪĳä»¬": 9195,
      "ä¹ĭä¸Ģæĺ¯": 9196,
      "ï¼ļ[": 9197,
      "Ġçĥ¤": 9198,
      "åľ°ä¸ĭ": 9199,
      "ä¸ĺ": 9200,
      "çļĦæľĢ": 9201,
      "çĹķ": 9202,
      "çĽ¸éģĩ": 9203,
      "ç§ĭåŃ£": 9204,
      "è¾¾åĪ°äºĨ": 9205,
      "éļıçĿĢæĹ¶éĹ´çļĦæİ¨ç§»": 9206,
      "è¿Ļä¸ªæķħäºĭ": 9207,
      "éĩĳéĴ±": 9208,
      "ä¸įéĶĻçļĦ": 9209,
      "éļıæĦı": 9210,
      "çļĦåĪĹè¡¨": 9211,
      "æ¹¿çĥŃ": 9212,
      "è¿Ļä¸ªé¡¹çĽ®": 9213,
      "åħ³çĪ±": 9214,
      "å¼ĢæºĲ": 9215,
      "ç¼ºå°ĳ": 9216,
      "é£İåħī": 9217,
      "èĥ½åĬĽçļĦ": 9218,
      "ç»´çĶŁç´łåĴĮ": 9219,
      "æľĢä½³çļĦ": 9220,
      "ç»Ĵ": 9221,
      "çĶ¨é¤Ĳ": 9222,
      "public": 9223,
      "å°Ĩè¿ĻäºĽ": 9224,
      "ä¹ĭåĴĮ": 9225,
      "æĽĿ": 9226,
      "åĪ°åºķ": 9227,
      "æĳĦåĥıå¤´": 9228,
      "çĶ¨è¯į": 9229,
      "éģĵçĲĨ": 9230,
      "è¾ĥå¤§çļĦ": 9231,
      "æľŁéĻĲ": 9232,
      "å¸ĿåĽ½": 9233,
      "Ġam": 9234,
      "èĢģé¼ł": 9235,
      "æĻ¯è±¡": 9236,
      "åį¡è·¯": 9237,
      "çº²": 9238,
[...]
